the 234796
. 187238
a 154990
to 122828
i 122751
of 90328
you 81611
in 73392
is 70042
it 52876
for 44832
he 40299
and 39400
on 39013
have 37901
, 37361
's 36344
be 31550
with 28078
this 27544
my 26956
are 26154
that 25632
was 24587
at 24534
do 24199
your 23435
we 23361
me 22892
one 22547
his 21791
an 20922
? 20750
like 20488
can 19873
re@@ 18554
not 16907
what 15726
she 15690
by 15670
please 15660
from 15398
how 15140
out 14629
up 13886
as 13714
there 13552
in@@ 13435
-@@ 13364
will 13178
a@@ 13074
all 12888
has 12701
her 12522
go 12502
about 12270
get 11747
s@@ 11717
but 11599
s 11594
&apos;s 11137
i@@ 11022
p@@ 10905
or 10709
ed 10630
take 10615
good 9978
b@@ 9850
t@@ 9791
no 9729
e@@ 9717
time 9634
d@@ 9342
something 9160
very 8916
could 8831
him 8725
if 8724
some 8672
would 8582
our 8575
li@@ 8553
de@@ 8536
o@@ 8507
g@@ 8474
so 8472
they 8461
y 8444
i'm 8209
es 8200
ts 8140
somebody 8129
di@@ 8048
k@@ 8004
l@@ 7966
en@@ 7944
let 7901
here 7831
ing 7795
ly 7644
make 7610
into 7548
ca@@ 7430
&apos;t 7417
any 7332
ra@@ 7229
when 7218
had 7165
u@@ 7122
'm 7113
ma@@ 7109
ted 7011
two 6899
m@@ 6886
been 6884
t 6883
f@@ 6828
la@@ 6807
m 6720
s. 6694
ri@@ 6684
just 6648
un@@ 6641
don 6638
may 6634
le@@ 6629
right 6609
er 6600
't 6551
new 6510
ti@@ 6486
see 6472
want 6463
con@@ 6450
come 6414
be@@ 6412
e 6410
&apos;m 6407
over 6307
much 6302
an@@ 6291
co@@ 6252
ds 6198
c@@ 6186
ta@@ 6185
don't 6183
think 6175
off 6129
work 6085
st 6083
st@@ 6076
way 6071
ro@@ 5962
tion 5955
were 5937
it's 5936
al 5935
going 5927
y@@ 5839
d 5806
su@@ 5797
give 5792
p 5710
down 5674
se 5674
know 5642
mi@@ 5615
se@@ 5548
ha@@ 5519
more 5464
l 5449
th@@ 5430
lo@@ 5428
back 5381
well 5336
’ 5296
red 5292
room 5236
man 5225
now 5187
ar@@ 5178
put 5172
v@@ 5167
'll 5163
pre@@ 5114
many 5078
to@@ 5078
day 5028
did 5028
o 4979
le 4972
si@@ 4945
ers 4863
too 4853
should 4800
pro@@ 4737
mo@@ 4727
people 4698
ded 4692
long 4663
sa@@ 4658
us 4652
or@@ 4515
got 4503
pi@@ 4492
ex@@ 4476
k 4457
after 4450
n 4428
sorry 4418
er@@ 4383
am 4354
sp@@ 4316
me@@ 4311
pa@@ 4270
w@@ 4262
call 4247
fi@@ 4247
po@@ 4242
vi@@ 4242
sh@@ 4220
g 4196
i'll 4172
d. 4118
their 4106
ate 4076
' 4074
its 4058
na@@ 4048
ac@@ 4040
sb 4037
wa@@ 4034
only 4031
r@@ 3986
able 3979
led 3956
&apos;ll 3935
al@@ 3928
use 3921
three 3889
bu@@ 3883
it@@ 3822
ding 3812
n@@ 3806
car 3793
ve 3785
y. 3775
gra@@ 3763
where 3756
te@@ 3738
ru@@ 3734
c 3726
name 3721
first 3713
ting 3712
ls 3695
made 3690
look 3665
'd 3651
keep 3617
house 3613
last 3595
th 3595
.@@ 3575
% 3574
must 3572
ho@@ 3536
" 3535
before 3506
bo@@ 3498
does 3483
te 3479
ch@@ 3443
other 3436
z@@ 3433
no@@ 3428
ck@@ 3411
so@@ 3411
them 3400
ous 3393
ce 3383
da@@ 3376
through 3359
next 3356
dis@@ 3354
really 3351
i'd 3350
pe@@ 3347
fa@@ 3342
ment 3342
on@@ 3333
ni@@ 3330
wi@@ 3326
than 3319
help 3316
tell 3316
for@@ 3308
cu@@ 3306
who 3301
money 3292
j@@ 3289
we@@ 3272
ant 3271
little 3269
sh 3264
ck 3262
five 3251
car@@ 3242
sth 3230
ter 3214
com@@ 3207
per@@ 3184
ance 3100
which 3092
ence 3083
these 3067
water 3059
can't 3053
ction 3052
fe@@ 3051
! 3049
che@@ 3049
sure 3049
sho@@ 3044
say 3035
need 3033
ve@@ 3020
ty 3015
ag@@ 3014
&apos;d 3005
away 3005
ent 2999
thank 2996
ab@@ 2990
x@@ 2984
show 2978
ce@@ 2970
great 2968
ad@@ 2967
h@@ 2958
set 2940
around 2930
feel 2929
de 2926
les 2926
life 2925
1@@ 2921
t. 2911
at@@ 2907
ci@@ 2901
ne@@ 2893
tra@@ 2876
home 2873
because 2852
im@@ 2847
b 2846
ea@@ 2846
table 2818
mr 2814
old 2804
ga@@ 2797
ms 2796
ten 2794
mu@@ 2791
res 2783
der 2780
ss@@ 2764
ba@@ 2711
left 2701
lot 2698
play 2696
line 2695
sta@@ 2692
end 2691
bi@@ 2689
ch 2679
sed 2678
then 2674
number 2673
ity 2660
ver@@ 2654
always 2652
ation 2646
hi@@ 2646
do@@ 2645
night 2644
pu@@ 2638
w 2635
en 2629
never 2622
pay 2618
today 2610
ated 2598
change 2576
mind 2575
every 2573
) 2558
under 2558
against 2552
company 2550
ful 2549
( 2548
du@@ 2543
ge@@ 2531
man@@ 2529
ss 2521
open 2506
most 2502
better 2499
another 2497
he@@ 2486
tions 2481
ced 2471
gu@@ 2465
sti@@ 2464
par@@ 2462
mon@@ 2450
try 2443
age 2434
place 2434
ling 2423
find 2420
ll 2413
qu@@ 2412
late 2407
pri@@ 2405
tive 2402
ship 2401
king 2395
is@@ 2394
inter@@ 2382
train 2382
anything 2380
book 2379
ll@@ 2379
eat 2378
mar@@ 2369
years 2367
ses 2356
afraid 2341
op@@ 2339
've 2338
food 2338
school 2336
ps 2334
year 2332
sha@@ 2330
business 2328
days 2327
sc@@ 2327
hand 2322
again 2321
cal 2317
jo@@ 2315
such 2314
re 2303
still 2302
leave 2301
over@@ 2294
ke 2291
ary 2281
ur@@ 2278
r 2274
high 2270
2@@ 2262
can@@ 2262
children 2250
cha@@ 2249
went 2246
head 2243
ze 2242
ks 2240
order 2240
min@@ 2237
ter@@ 2237
bad 2235
x 2235
tomorrow 2231
ing. 2229
col@@ 2214
ked 2213
lea@@ 2206
ge 2191
tu@@ 2180
hard 2173
ver 2164
side 2163
ved 2152
ct 2149
yes 2146
ves 2142
check 2139
used 2139
go@@ 2138
: 2132
shed 2126
world 2124
light 2117
1 2112
ments 2107
country 2101
tri@@ 2096
best 2088
said 2084
ite 2081
ten@@ 2062
fu@@ 2050
love 2048
that's 2046
job 2044
stop 2043
ke@@ 2042
ble 2028
nice 2026
without 2024
il 2016
ties 2007
har@@ 2006
hope 2005
hold 1999
ings 1998
between 1994
party 1989
‘ 1987
cy 1986
less 1986
lu@@ 1978
mb@@ 1977
mp@@ 1977
s? 1971
english 1968
buy 1964
stu@@ 1954
sir 1940
the@@ 1937
cked 1934
four 1934
ing@@ 1934
el@@ 1929
send 1928
ou@@ 1926
son 1926
wor@@ 1926
kind 1919
stay 1910
're 1904
stra@@ 1902
doing 1899
turn 1899
japanese 1898
bus 1897
ins 1892
bring 1889
cra@@ 1889
hea@@ 1881
friend 1877
oh 1877
fla@@ 1875
things 1875
morning 1873
city 1871
nu@@ 1871
sub@@ 1870
ry 1869
please. 1863
ask 1861
hundred 1857
hu@@ 1853
cted 1836
ned 1835
soon 1832
while 1831
et 1829
vo@@ 1827
speak 1826
dra@@ 1824
pe 1823
excuse 1820
face 1818
looking 1816
each 1810
ven@@ 1801
mother 1791
hotel 1790
gi@@ 1785
came 1784
ki@@ 1784
ine 1782
e. 1781
shall 1781
bur@@ 1779
it. 1779
big 1771
sing 1771
free 1770
person 1769
om@@ 1763
own 1759
being 1757
i've 1755
case 1753
tes 1750
why 1750
pla@@ 1748
cks 1741
office 1736
sion 1734
d-@@ 1733
cold 1728
air 1721
ness 1717
few 1713
let's 1711
full 1701
sts 1695
small 1689
as@@ 1686
father 1683
meet 1680
/ 1676
week 1676
six 1670
nothing 1669
form 1668
dy 1663
you. 1662
ally 1661
cut 1654
low 1654
thing 1650
ors 1648
live 1647
often 1647
il@@ 1645
wait 1642
window 1637
ters 1636
door 1634
same 1631
id 1629
men 1629
ju@@ 1625
war@@ 1625
tic 1619
japan 1615
ser@@ 1615
quite 1614
&apos;ve 1612
lost 1611
u 1604
hear 1601
read 1599
took 1599
bed 1598
gh@@ 1597
gre@@ 1597
game 1595
ces 1582
talk 1574
service 1570
minutes 1557
cli@@ 1554
out@@ 1552
file 1549
clo@@ 1547
per 1545
ger 1541
ph@@ 1540
run 1539
dollars 1538
key 1536
sted 1536
view 1536
rea@@ 1532
… 1531
land 1530
won 1524
el 1523
ther@@ 1523
shi@@ 1522
ir@@ 1511
ball 1505
meeting 1505
chi@@ 1502
hot 1501
government 1499
zed 1494
cla@@ 1489
ban@@ 1485
ele@@ 1483
getting 1483
found 1480
cannot 1476
start 1473
den@@ 1471
y, 1469
gave 1468
sli@@ 1467
family 1464
lar@@ 1464
part 1460
ning 1459
didn 1455
app@@ 1452
enough 1451
wrong 1451
2 1450
town 1448
police 1443
der@@ 1442
cho@@ 1440
fine 1434
done 1433
men@@ 1432
coming 1430
ged 1429
chan@@ 1428
ched 1427
fire 1427
sen@@ 1425
3@@ 1422
wn 1421
lan@@ 1409
je@@ 1405
matter 1405
ste@@ 1405
point 1404
sur@@ 1404
until 1404
dinner 1400
during 1400
care 1399
pped 1392
pt 1392
fo@@ 1390
5 1387
charge 1383
mp 1382
ited 1380
station 1379
fun@@ 1378
sea@@ 1378
am@@ 1377
med 1377
child 1374
road 1374
everything 1373
he's 1370
far 1366
half 1366
okay 1365
word 1363
also 1362
watch 1362
cur@@ 1361
ori@@ 1360
fac@@ 1359
ticket 1354
together 1352
bit 1349
sto@@ 1349
up@@ 1347
heart 1345
any@@ 1341
coffee 1339
por@@ 1339
having 1338
oneself 1338
ure 1336
als 1332
stand 1323
didn't 1320
list 1318
ying 1318
hair 1316
class 1313
she@@ 1313
public 1310
round 1310
price 1306
cor@@ 1304
thousand 1303
ches 1302
dire@@ 1302
han@@ 1302
&apos;re 1301
seat 1300
ever 1298
ground 1297
flight 1296
spe@@ 1296
large 1293
those 1293
tion@@ 1292
y? 1292
ined 1290
short 1290
hours 1285
ving 1285
system 1282
bro@@ 1281
sig@@ 1281
wife 1280
f 1278
front 1278
drink 1276
heard 1274
position 1274
rela@@ 1273
fer@@ 1267
5@@ 1265
ber@@ 1265
bri@@ 1261
4@@ 1259
me. 1258
size 1257
char@@ 1255
second 1255
... 1253
along 1251
es@@ 1250
ed@@ 1247
fully 1243
af@@ 1242
cap@@ 1242
walk 1242
seven 1241
wing 1240
air@@ 1239
ear@@ 1236
happy 1236
close 1233
idea 1229
upon 1227
information 1226
; 1225
ons 1224
pen@@ 1224
card 1223
bill 1222
weather 1221
ob@@ 1219
working 1217
ble@@ 1214
cro@@ 1214
cts 1213
bra@@ 1212
plan 1206
war 1206
ght@@ 1205
looks 1203
cs 1201
san@@ 1201
act 1200
test 1200
even 1199
problem 1195
young 1194
imp@@ 1192
speci@@ 1190
near 1189
ear 1187
8@@ 1183
tor@@ 1183
paper 1182
death 1181
hit 1181
stri@@ 1181
va@@ 1181
ren@@ 1179
eyes 1178
move 1177
rest 1176
board 1175
rain 1175
ty@@ 1175
both 1172
yen 1172
moment 1171
ster 1171
sk@@ 1170
0@@ 1169
friends 1166
phone 1166
letter 1164
different 1162
oun@@ 1161
fied 1158
usually 1158
tain 1157
clock 1156
0 1153
times 1153
isn't 1151
ali@@ 1150
ct@@ 1149
pos@@ 1149
ent@@ 1147
mail 1145
off@@ 1145
tional 1145
news 1144
lt 1143
since 1143
clear 1142
words 1138
hor@@ 1137
hel@@ 1136
tation 1136
hour 1135
bar@@ 1133
course 1133
ap@@ 1132
fin@@ 1132
mr. 1130
ma 1126
write 1126
6@@ 1125
under@@ 1125
comes 1123
power 1119
told 1118
ton@@ 1118
tter@@ 1118
ption 1114
fish 1112
comp@@ 1110
called 1108
pass 1108
- 1105
court 1104
fit 1104
eight 1103
ther 1103
believe 1102
dog 1102
ring 1100
top 1100
month 1096
lling 1095
taken 1093
lin@@ 1090
all@@ 1086
her@@ 1085
win@@ 1085
ang@@ 1084
ard 1084
street 1084
law 1079
once 1079
xi@@ 1079
tur@@ 1078
ws 1078
yet 1075
fore@@ 1073
wish 1071
already 1070
cre@@ 1070
whi@@ 1068
break 1066
twenty 1066
hun@@ 1065
doctor 1063
evening 1060
uni@@ 1060
easy 1058
rather 1058
understand 1058
boy 1055
wind 1055
bor@@ 1054
music 1053
trave@@ 1053
saw 1052
ger@@ 1051
tor 1051
dri@@ 1050
ce. 1049
message 1048
lls 1047
restaurant 1047
tonight 1044
lled 1042
ready 1042
trouble 1040
color 1039
trans@@ 1039
sses 1038
00 1035
past 1035
dre@@ 1032
au@@ 1030
stic 1030
thought 1029
pan@@ 1028
sil@@ 1027
ssed 1024
thirty 1024
est@@ 1021
visit 1021
yourself 1019
store 1018
building 1017
ges 1017
d? 1011
oper@@ 1011
h 1009
health 1009
trip 1009
foo@@ 1005
tea 1005
vis@@ 1005
type 1001
7@@ 1000
poor 1000
several 999
gs 998
high@@ 998
ner 997
early 994
waiting 992
floor 990
m. 990
yed 990
beautiful 989
tried 989
back@@ 988
t? 984
forward 982
horse 982
ped 982
available 980
woman 980
black 976
sor@@ 976
white 976
tal@@ 974
action 973
dly 973
fall 972
date 971
miss 970
yo@@ 970
ctive 968
strong 966
cally 965
ctions 963
mean 962
val 961
glad 960
hands 959
important 959
lar 959
doesn 958
ns 958
teacher 957
ans 955
mark 955
students 954
fle@@ 953
kes 953
ld@@ 953
seems 952
chinese 951
mil@@ 949
team 949
seen 948
pp@@ 946
fra@@ 945
ars 944
mer@@ 944
sea 944
des 943
green 943
main 943
ys 943
sign 940
tru@@ 940
doesn't 939
fli@@ 939
ink 939
ker 935
3 934
ran@@ 934
ory 933
behind 932
mor@@ 932
int 931
it? 931
reservation 930
drive 929
lou@@ 929
later 928
whole 928
heavy 927
possible 927
serve 927
question 922
story 922
rate 920
bag 918
shop 918
dea@@ 917
dress 917
become 916
taking 915
bank 913
busy 913
someone 913
study 913
arm 912
sun@@ 912
enjoy 910
deli@@ 909
box 908
special 908
def@@ 907
himself 907
kno@@ 907
present 907
gar@@ 906
trying 904
please? 903
spi@@ 903
cost 901
sit 900
ones 897
s, 895
ft 893
brea@@ 892
ating 891
ff@@ 891
rou@@ 891
t-@@ 891
body 890
4 889
market 889
yesterday 889
scri@@ 886
regi@@ 885
pain 884
tch 884
tion. 884
fir@@ 883
lation 881
turned 881
ka@@ 880
ping 880
gri@@ 879
gro@@ 879
son@@ 879
stea@@ 879
difficult 878
goes 878
da 876
myself 876
traffic 876
nine 872
gr@@ 871
ine@@ 871
sing@@ 870
se. 869
thanks 869
goo@@ 867
mine 867
true 867
inv@@ 866
ja@@ 866
blo@@ 865
flo@@ 865
carry 864
work@@ 862
ff 861
sco@@ 861
accept 860
wall 860
bea@@ 859
isn 859
ster@@ 859
field 858
state 858
ens 857
ture 856
down@@ 854
ong 854
clothes 853
girl 853
might 852
shot 852
y-@@ 851
catch 850
eye 849
cti@@ 848
husband 848
ic 846
ner@@ 845
lunch 844
manager 844
sleep 844
6 843
cing 843
stan@@ 843
br@@ 842
cul@@ 841
don@@ 841
lun@@ 840
computer 839
pac@@ 839
en. 838
report 838
sight 838
afternoon 837
picture 836
ol@@ 835
um 835
wea@@ 833
wed 831
appro@@ 830
indi@@ 830
some@@ 830
straight 830
else 829
coun@@ 827
area 826
our@@ 826
post 826
vie@@ 826
across 824
lay 824
wear 823
plu@@ 822
fran@@ 821
parents 821
sy@@ 821
rent 820
river 819
what's 819
within 819
books 818
sense 817
sorry, 817
china 816
cal@@ 815
tting 815
prefer 813
8 810
ations 810
bb@@ 810
cru@@ 810
hello 810
sm 810
sou@@ 810
tly 810
sent 809
cou@@ 807
address 806
bought 806
hon@@ 805
er. 804
fell 804
fy 804
l. 804
hand@@ 803
pick 803
style 801
ders 799
now. 799
gener@@ 798
ari@@ 797
ing? 796
one@@ 796
plan@@ 795
prin@@ 795
star@@ 795
wine 795
clu@@ 794
qui@@ 792
inten@@ 791
on. 791
fill 790
ssi@@ 790
we're 789
iled 788
lly 788
error 787
mes 787
row 787
real 786
you're 786
summer 784
develo@@ 783
low@@ 782
respon@@ 782
return 782
tal 782
ery 781
certainly 779
group 779
ages 778
making 776
film 775
pes 774
piece 774
tre@@ 774
asked 773
gh 773
spo@@ 771
tea@@ 771
living 770
makes 770
feet 769
foreign 768
bs 767
consi@@ 767
department 767
loo@@ 767
wal@@ 767
we'll 767
credit 766
save 766
baby 764
failed 764
blood 762
dence 762
glass 762
ol 762
person@@ 762
accident 761
bar 761
ously 761
sick 761
nature 760
takes 760
felt 759
sis 759
temp@@ 759
thai 758
disp@@ 757
happ@@ 757
local 757
confi@@ 756
pl@@ 756
sound 756
day. 755
less@@ 755
19@@ 754
cent 754
popular 754
cast 753
cking 753
cup 753
thi@@ 753
airport 752
draw 752
due 752
women 752
current 751
plane 751
ton 751
answer 750
gone 750
press 750
died 749
exchange 749
time@@ 749
cen@@ 748
fre@@ 747
ko@@ 747
shing 747
goods 745
wh@@ 744
ok 743
pea@@ 743
eri@@ 742
sting 742
won't 742
ler 741
finish 740
playing 740
mb 739
speech 739
sun 738
thy 738
fair 737
feeling 737
ot 737
tour 737
ging 736
fast 735
account 734
enemy 734
ently 734
ill 734
travel 734
ven 734
match 733
art 731
means 731
mit 730
acce@@ 729
arti@@ 729
interest 729
remember 724
st. 723
cri@@ 722
brought 721
ered 721
club 720
run@@ 720
ching 718
foot 718
dd@@ 717
machine 717
whether 717
est 716
chance 715
ep 715
stru@@ 715
tv 715
pose 714
ty-@@ 714
gen@@ 713
ours 713
text 713
almost 712
cent@@ 710
rom@@ 708
stor@@ 708
tw@@ 708
voice 708
wonder 708
cated 707
firm 707
ite@@ 706
le. 706
quality 706
win 705
dead 703
met 703
blue 701
dro@@ 700
inst@@ 700
john 699
time. 699
american 698
enti@@ 698
mm@@ 698
seeing 698
here. 696
bil@@ 695
medicine 695
cash 694
given 694
japan@@ 692
oc@@ 692
re. 692
fri@@ 691
sla@@ 691
bility 690
general 690
control 688
ice 688
interested 688
future 687
dist@@ 686
history 686
ward 686
tired 685
free@@ 684
knowledge 684
pretty 684
week@@ 682
among 681
cting 681
minute 681
subject 681
lose 680
ssion 680
decided 679
follow 679
no, 679
telephone 678
zz@@ 678
fifty 677
ld 677
six@@ 677
tro@@ 677
meal 676
part@@ 676
provi@@ 676
shoes 676
folder 675
mary 675
outside 675
10 674
ator 674
pur@@ 674
sive 674
squ@@ 673
mate 672
national 672
reach 672
offer 671
well, 671
movie 670
single 670
ences 669
success 669
see@@ 668
dru@@ 667
contract 666
enter@@ 666
boat 665
page 665
prote@@ 665
care@@ 664
mission 664
lli@@ 663
far@@ 662
pair 662
suit 661
gold 660
kept 660
thailand 660
too@@ 660
wn@@ 660
drop 659
colle@@ 658
sometimes 658
anti@@ 657
looked 657
of@@ 657
slee@@ 657
tickets 657
america 656
weight 655
me, 654
tree 654
concer@@ 653
ctor 653
fil@@ 652
value 652
ahead 651
dr@@ 651
ny 651
dec@@ 650
park 650
tennis 650
everyone 649
poli@@ 649
held 648
ago 647
clean 646
using 646
force 645
situation 645
,000 644
wo@@ 644
deal 643
exce@@ 643
sca@@ 643
bat@@ 642
home@@ 642
international 642
university 642
val@@ 642
ils 641
recommend 641
sell 641
london 639
ming 639
running 639
ast 637
bit@@ 636
ies 635
ining 635
hy@@ 634
talking 634
iting 633
mat@@ 633
thro@@ 633
pra@@ 631
york 631
ening 630
ents 629
project 629
started 629
th. 629
great@@ 628
jud@@ 628
new@@ 627
cause 626
thou@@ 626
bly 625
finished 625
flu@@ 625
nal 625
reading 625
dent 624
ghts 624
guess 624
tax 624
zation 624
refu@@ 623
enter 622
tokyo 622
baht 621
dom 621
language 621
k. 620
pass@@ 620
ssing 620
expensive 619
gets 619
here? 618
lies 618
pat@@ 618
trade 618
cer 617
fight 616
haven't 616
luggage 616
who@@ 616
day@@ 615
gn@@ 615
form@@ 614
speaking 614
beer 613
space 613
step 613
tan@@ 613
welcome 613
accu@@ 612
sma@@ 612
ani@@ 611
broke 611
hol@@ 611
spea@@ 610
add 609
dar@@ 609
fea@@ 609
learn 609
n't 609
dom@@ 608
breakfast 607
gain 607
expe@@ 606
express 606
kin@@ 606
ality 605
level 605
oil 605
opinion 605
you? 604
bla@@ 603
data 602
organi@@ 602
god 601
ler@@ 601
proce@@ 601
tter 601
forget 600
one. 600
pain@@ 600
stick 600
bul@@ 599
wonderful 599
jac@@ 598
works 598
inte@@ 597
aw@@ 596
boss 596
hospital 595
president 595
wanted 595
lon@@ 594
others 594
sible 594
trou@@ 594
cle 593
join 593
hear@@ 592
hur@@ 592
mber 592
spend 592
dia@@ 591
like@@ 590
p. 590
sky 590
cation 589
seats 589
smoking 589
taxi 589
dge 588
menu 588
support 588
agree 587
book@@ 587
sounds 587
auth@@ 586
third 586
descri@@ 585
scra@@ 585
writing 585
common 584
finally 584
garden 584
satis@@ 584
caught 583
ch. 583
french 583
irs 583
policy 583
stock 583
dance 582
deep 582
et@@ 582
paid 582
worth 582
famous 581
instru@@ 581
itor 581
married 580
pow@@ 580
cate 579
couldn 579
exc@@ 579
ller 579
valu@@ 579
scen@@ 578
tran@@ 578
yer 578
coat 577
lie 576
sales 576
sister 576
twenty-@@ 576
vely 576
clean@@ 575
dry 575
"@@ 574
din@@ 574
duty 574
ination 574
known 574
20 573
hurry 573
ken 573
maybe 573
od@@ 573
spa@@ 573
consu@@ 572
stage 572
7 571
brother 571
careful 571
contact 571
prom@@ 570
nine@@ 569
port 569
quar@@ 568
milk 567
practice 567
program 567
separ@@ 567
wan@@ 567
ise 566
ko 566
mis@@ 566
ners 566
sal@@ 566
sort 565
clou@@ 564
smoke 564
lit@@ 563
dark 562
mini@@ 562
safe 562
tt@@ 562
thea@@ 561
dies 560
experience 560
ly. 560
memory 560
select 560
dan@@ 559
human 559
longer 559
map 558
nar@@ 558
nor@@ 558
ron@@ 558
student 558
iness 557
pression 557
reason@@ 557
tr@@ 557
countries 556
expen@@ 556
there@@ 556
'@@ 555
atta@@ 555
race 555
towards 555
ve. 555
ita@@ 554
redu@@ 554
ability 553
double 553
search 553
seem 553
ach 552
touch 552
arri@@ 551
meat 551
months 550
remo@@ 550
you'll 550
d, 549
decision 549
dness 549
jun@@ 549
ul@@ 549
ctu@@ 548
eigh@@ 548
ght? 548
received 548
gate 547
rely 547
truth 547
acti@@ 546
exi@@ 546
glo@@ 546
wood 546
pressed 545
ury 545
advan@@ 544
bal@@ 544
personal 544
phi@@ 544
vege@@ 544
cau@@ 543
college 543
property 543
broken 542
ck. 542
reserve 542
ef 541
load 541
plea@@ 541
sation 541
super@@ 541
prices 540
says 540
ang 539
command 537
gas 537
speed 537
factory 536
lines 536
pleasure 536
wit@@ 536
fact 535
gg@@ 535
ire 535
needs 535
hang 534
haven 534
desk 533
gl@@ 533
tely 533
total 533
choose 532
crea@@ 532
mou@@ 532
dee@@ 531
least 531
iling 530
reason 530
bear 529
que 529
united 529
wide 529
ye@@ 529
den 528
easily 528
political 528
tage 528
way. 528
beyond 527
ene@@ 527
me? 527
boo@@ 526
problems 526
seven@@ 526
baggage 525
teach@@ 525
ants 524
gla@@ 524
my@@ 524
bru@@ 523
medi@@ 523
now@@ 523
warm 523
golf 522
mouth 522
natural 522
suit@@ 522
fic 521
in. 521
ket 521
rice 521
vari@@ 521
alone 520
conver@@ 520
ent. 520
pping 520
range 520
flow@@ 519
smith 519
9 518
cial 518
fav@@ 518
ran 518
season 518
though 518
above 517
shopping 517
inju@@ 516
long@@ 516
born 515
screen 515
brown 514
gue 514
holiday 514
offi@@ 514
today. 514
anyone 513
ries 513
thu@@ 513
every@@ 512
parti@@ 512
cles 511
percent 511
wer 511
comfor@@ 510
sol@@ 510
tom@@ 510
happened 509
record 509
touri@@ 509
fare 508
kil@@ 508
wise 508
claim 507
ere 507
middle 507
pted 507
radio 507
rich 507
sna@@ 507
certain 506
leaves 506
necessary 506
pati@@ 506
wha@@ 506
cake 505
mental 505
there's 505
year@@ 505
distance 504
insurance 504
ka 504
lities 504
cture 503
pr@@ 503
throw 503
changed 502
deb@@ 502
net 502
played 502
selected 502
states 502
sy 502
heat 501
player 501
stone 501
west 501
ctly 500
tain@@ 500
calling 499
display 499
ency 499
ering 499
four@@ 499
inside 499
mea@@ 499
ok@@ 499
repor@@ 499
sports 499
winter 499
appointment 498
cations 498
e-@@ 498
issue 498
teri@@ 498
wash 498
gradu@@ 497
marriage 497
signed 497
according 495
cour@@ 495
create 495
education 495
equi@@ 495
fresh 495
fruit 495
peri@@ 495
9@@ 494
chea@@ 494
mr@@ 494
pull 494
fal@@ 493
skin 493
t, 493
fix 492
relie@@ 492
that. 492
files 491
lations 491
mistake 491
dered 490
mom@@ 490
thinking 489
process 488
daughter 487
further 487
million 487
od 487
secre@@ 487
server 487
teen 487
vement 487
document 486
hole 486
increa@@ 486
passed 486
sale 486
ates 485
difficul@@ 485
head@@ 485
peace 485
crowd 484
gun 484
jan@@ 484
ple 484
shes 484
30 483
application 483
character 483
ears 483
image 483
newspaper 483
thre@@ 483
ya 483
driver 482
gation 482
nose 482
fan@@ 481
fly 481
science 481
seri@@ 481
ss. 481
tend 481
zing 481
bran@@ 480
die 478
es. 478
places 478
taste 478
button 477
correct 477
ounded 477
receive 477
stro@@ 477
gent@@ 476
lish 476
operation 476
resi@@ 476
arrived 475
cards 475
ore 475
pper 475
disc@@ 474
hood 474
publi@@ 474
attention 473
cy@@ 473
e? 473
house@@ 473
water@@ 473
camera 472
shirt 472
vac@@ 472
comple@@ 471
eal 471
produ@@ 471
bac@@ 470
effe@@ 470
final 470
games 470
appli@@ 469
comm@@ 469
complete 469
couldn't 469
hote@@ 469
cient 468
jump 468
practi@@ 468
conne@@ 467
consider@@ 467
hi 467
logi@@ 467
sk 467
became 466
default 466
list@@ 466
que@@ 466
chair 465
cover 465
square 465
fer 464
scre@@ 464
viol@@ 464
ya@@ 464
covered 463
ffi@@ 463
hill 463
reco@@ 463
z 463
ig@@ 462
raise 462
earth 461
fl@@ 461
flowers 461
regu@@ 461
sent@@ 461
soup 461
interesting 460
private 460
ski@@ 460
strike 460
closed 459
enjoyed 459
lives 459
missed 459
tele@@ 459
vol@@ 459
center 458
ere@@ 458
hurt 458
om 458
qua@@ 458
secon@@ 458
thir@@ 458
valid 458
worry 458
ride 457
served 457
wants 457
cat 456
him. 456
titude 456
trees 456
football 455
lab@@ 455
out. 455
serious 455
stre@@ 455
:@@ 454
corner 454
ser 454
sty 454
cream 453
marks 453
o'@@ 453
requ@@ 453
you@@ 453
cross 452
fortune 452
lock 452
patient 452
whe@@ 452
wra@@ 452
driving 451
hat 451
quick 451
regular 451
saying 451
social 451
well-@@ 451
ble. 450
copy 450
leaving 450
main@@ 450
civi@@ 449
eu@@ 449
engine 448
ght. 448
lead 448
liter@@ 448
nea@@ 448
possi@@ 447
evidence 446
should@@ 446
stat@@ 446
agreement 445
began 445
fear 445
happen 445
promo@@ 445
swimming 445
belie@@ 444
birthday 444
bottom 444
mid@@ 444
post@@ 444
storm 444
track 444
dle 443
fifteen 443
curren@@ 442
jack 442
minister 442
day? 441
scho@@ 441
wait@@ 441
ing, 440
log 440
inclu@@ 439
management 439
som@@ 439
dden 438
nel 438
staying 438
stran@@ 438
army 437
emplo@@ 437
extra 437
rep@@ 437
self-@@ 437
source 437
spring 437
task 437
communi@@ 436
desp@@ 436
mps 436
unable 436
cycle 435
manag@@ 435
mble 435
quickly 435
ford 434
listen 434
luck 434
stop@@ 434
amount 433
fami@@ 433
oka@@ 433
one-@@ 433
passport 433
eggs 432
examination 432
profe@@ 432
ral 432
temperature 432
master 431
behavi@@ 430
figure 430
kee@@ 430
print 430
session 430
posed 429
secret 429
sof@@ 429
sunday 429
ue 429
bottle 428
compli@@ 428
stood 428
sit@@ 427
tables 427
bin@@ 426
crime 426
devi@@ 426
formed 426
likes 426
bath 425
itation 425
noi 425
side@@ 425
wai@@ 425
worked 425
beauty 424
bread 424
expect 424
favorite 424
slow 424
tom 424
attra@@ 423
disa@@ 423
dishes 423
gin 423
hom@@ 423
inde@@ 423
mped 423
section 423
guil@@ 422
result 422
sup@@ 422
that@@ 422
tun@@ 422
arms 421
either 421
execu@@ 421
moun@@ 421
photo@@ 421
rise 421
strength 421
wel@@ 421
experi@@ 419
fro@@ 419
leg 419
ority 419
ort 419
choice 418
couple 418
custom@@ 418
inve@@ 418
stairs 418
workers 418
below 417
compani@@ 417
kinds 417
major 417
ond 417
plans 417
progra@@ 417
questions 417
terms 417
vers 417
�@@ 417
beat 416
eng@@ 416
ths 416
tin@@ 416
-up 415
allowed 415
dish 415
grow 415
lated 415
sugar 415
up. 415
blan@@ 414
design 414
or. 414
roll 414
rooms 414
tribu@@ 414
economic 413
holi@@ 413
oh, 413
period 413
pounds 413
tax@@ 413
yuan 413
�s 413
ends 412
members 412
modern 412
rece@@ 412
sides 412
snow 412
society 412
sold 412
sport 412
bene@@ 410
plain 410
reali@@ 410
effect 409
ideas 409
north 409
ordin@@ 409
quali@@ 409
vity 409
crow@@ 408
fication 407
short@@ 407
sse@@ 407
end@@ 406
production 406
addi@@ 405
allow 405
direct 405
exercise 405
gift 405
grand@@ 405
supp@@ 405
sweet 405
waste 405
fun 404
hall 404
justi@@ 404
ounds 404
standard 404
forma@@ 403
ill@@ 403
nation 403
occu@@ 403
san 403
une@@ 403
usual 403
blow 402
cere@@ 402
here's 402
mum 402
payment 402
spir@@ 402
zero 402
chicken 401
chin@@ 401
colour 401
difference 401
estab@@ 401
ment@@ 401
mony 401
neck 401
two@@ 401
weekend 401
completely 400
danger 400
explain 400
gent 400
pit@@ 400
quiet 400
50 399
accoun@@ 399
constru@@ 399
industry 399
insu@@ 399
lower 399
sugge@@ 399
vin@@ 399
dir@@ 398
friend@@ 398
host 398
performance 398
you, 398
atten@@ 397
event 397
hone@@ 397
judge 397
stration 397
ca 396
chief 396
flat 396
caused 395
ised 395
i�@@ 395
plant 395
three@@ 395
weeks 395
angry 394
arrive 394
box@@ 394
suffer@@ 394
sh. 393
soft 393
south 393
till 393
ttle 393
discu@@ 392
lor@@ 392
salad 392
identi@@ 391
sin@@ 391
zy 391
circu@@ 390
disease 390
law@@ 390
mer 390
stomach 390
switch 390
vation 390
aring 389
continu@@ 389
cta@@ 389
economy 389
probably 389
success@@ 389
deci@@ 388
engag@@ 388
has@@ 388
ical 388
invol@@ 388
lucky 388
minute@@ 388
remove 388
score 388
$ 387
bridge 387
compla@@ 387
dal 387
els 387
ended 387
mountain 387
rules 387
attemp@@ 386
cars 386
cook 386
emp@@ 386
imag@@ 386
legal 386
sharp 386
succe@@ 386
tally 386
bun@@ 385
increase 385
note 385
ration 385
sions 385
ways 385
conta@@ 384
fru@@ 384
gged 384
notice 384
ough 384
pota@@ 384
proper@@ 384
song 384
st-@@ 384
stree@@ 384
wat@@ 384
ened 383
learning 383
sele@@ 383
stern 383
vered 383
asi@@ 382
iron 382
promise 382
appreciate 381
cure 381
finger 381
influ@@ 381
ph 381
tears 381
tradi@@ 381
walking 381
advice 380
attack 380
compu@@ 380
em@@ 380
ev@@ 380
wr@@ 380
development 379
friday 379
impro@@ 379
pared 379
security 379
cigaret@@ 378
pictu@@ 378
restaur@@ 378
ll. 377
standing 377
tee 377
ets 376
loss 376
pressure 376
read@@ 376
salt 376
spent 376
achie@@ 375
beginning 375
empty 375
mista@@ 375
perfect 375
points 375
tar@@ 375
us@@ 375
base 374
edge 374
europe 374
excellent 374
library 374
morn@@ 374
pil@@ 374
bangkok 373
fault 373
products 373
terri@@ 373
woo@@ 373
actually 372
hate 372
nur@@ 372
teen@@ 372
vy 372
affe@@ 371
simp@@ 371
ther. 371
ately 370
built 370
miles 370
share 370
than@@ 370
wee@@ 370
carried 369
ley 369
model 369
product 369
rock 369
wake 369
changes 368
distri@@ 368
doubt 368
knew 368
ow@@ 368
presen@@ 368
shu@@ 368
swe@@ 368
transfer 368
work. 368
bus@@ 367
handle 367
lear@@ 367
len@@ 367
network 367
oni@@ 367
pen 367
sist@@ 367
smo@@ 367
tail 367
bet 366
mber@@ 366
moved 366
walked 366
arran@@ 365
cr@@ 365
depen@@ 365
terrible 365
treat 365
windows 365
bye 364
cip@@ 364
maj@@ 364
repu@@ 363
research 363
cloth 362
desktop 362
requi@@ 362
fashion 361
ghtly 361
mode@@ 361
tent 361
ert 360
half@@ 360
nat@@ 360
obje@@ 360
sat 360
suppor@@ 360
10@@ 359
fur@@ 359
juice 359
ki 359
knows 359
multi@@ 359
pieces 359
stroke 359
ter. 359
musi@@ 358
solution 358
adverti@@ 357
defin@@ 357
depart@@ 357
eating 357
foun@@ 357
ong@@ 357
purpose 357
tial 357
divi@@ 356
extre@@ 356
mode 356
ound 356
posi@@ 356
soldiers 356
to-@@ 356
w. 356
xed 356
critici@@ 355
follow@@ 355
length 355
written 355
ache 354
beach 354
chemi@@ 354
embar@@ 354
expected 354
fing@@ 354
tou@@ 354
wet 354
cle@@ 353
dation 353
engine@@ 353
gers 353
religi@@ 353
sche@@ 353
sci@@ 353
sw@@ 353
tors 353
wedding 353
alty 352
bon@@ 352
disap@@ 352
herself 352
idea@@ 352
lady 352
tary 352
vacation 352
active 351
begin 351
check@@ 351
determin@@ 351
gement 351
hair@@ 351
itali@@ 351
lack 351
responsi@@ 351
ute 351
bath@@ 350
desi@@ 350
guard 350
rit@@ 350
schedule 350
use@@ 350
100 349
automa@@ 349
bird 349
christmas 349
counter 349
following 349
quit 349
tomorrow. 349
background 348
bud@@ 348
count 348
gir@@ 348
gives 348
gotten 348
lift 348
noti@@ 348
pers 348
rain@@ 348
staff 348
youn@@ 348
abroad 347
argument 347
messages 347
stopped 347
village 347
ath@@ 346
build 346
contra@@ 346
doct@@ 346
dpi 346
journey 346
planning 346
rema@@ 346
room@@ 346
surpri@@ 346
exa@@ 345
failure 345
forty 345
legs 345
measu@@ 345
pocket 345
recently 345
results 345
ssive 345
ts. 345
user 345
boy@@ 344
charac@@ 344
land@@ 344
pin@@ 344
proposal 344
tana@@ 344
c. 343
dollar 343
filled 343
logy 343
lots 343
ordered 343
shor@@ 343
swi@@ 343
article 342
celebra@@ 342
discount 342
election 342
exam 342
ference 342
provide 342
smile 342
steak 342
tie 342
bom@@ 341
bound 341
buil@@ 341
capital 341
everybody 341
medical 341
particular 341
pointed 341
school@@ 341
shut 341
television 341
verse 341
clear@@ 340
ed. 340
entrance 340
gree@@ 340
liar 340
moon 340
noise 340
sett@@ 340
champi@@ 339
church 339
keeping 339
nee@@ 339
path 339
animals 338
b. 338
cer@@ 338
code 338
connect 338
cry@@ 338
fits 338
gic 338
tick@@ 338
with@@ 338
ama@@ 337
deser@@ 337
employe@@ 337
fair@@ 337
improve 337
p.@@ 337
recogni@@ 337
thing. 337
committee 336
favour 336
hardly 336
spot 336
docu@@ 335
dream 335
figu@@ 335
players 335
yeah 335
events 334
fif@@ 334
guide 334
knife 334
prefer@@ 334
puni@@ 334
studying 334
teeth 334
dest@@ 333
drinking 333
monday 333
non-@@ 333
push 333
rough 333
tains 333
although 332
badly 332
bow@@ 332
conce@@ 332
fixed 332
lf 332
museum 332
rule 332
tained 332
busine@@ 331
cool 331
dess@@ 331
explo@@ 331
facts 331
fire@@ 331
instead 331
lying 331
spread 331
tight 331
method 330
p-@@ 330
smoo@@ 330
stron@@ 330
trust 330
again. 329
asse@@ 329
bags 329
beijing 329
eti@@ 329
ety 329
key@@ 329
measure 329
os 329
pment 329
regar@@ 329
reserva@@ 329
rying 329
suffer 329
tion? 329
training 329
unk 329
igh@@ 328
ingly 328
ir 328
safety 328
they@@ 328
tives 328
apologi@@ 327
apply 327
lit 327
member 327
neighb@@ 327
plate 327
represen@@ 327
stle 327
techni@@ 327
00@@ 326
beef 326
exactly 326
saturday 326
sev@@ 326
shi 326
smell 326
strange 326
customs 325
enable 325
laundry 325
licen@@ 325
parts 325
request 325
ssions 325
boar@@ 324
ce? 324
chu@@ 324
device 324
recor@@ 324
ta 324
deta@@ 323
introduce 323
killed 323
thers 323
vote 323
balance 322
certificate 322
cir@@ 322
connection 322
girl@@ 322
is? 322
ji@@ 322
magaz@@ 322
obli@@ 322
previous 322
ror 322
star 322
verage 322
congratu@@ 321
negoti@@ 321
painting 321
relation@@ 321
swim 321
term 321
inno@@ 320
island 320
prime 320
tin 320
based 319
battle 319
bob 319
demo@@ 319
gest 319
ght 319
guests 319
inci@@ 319
lived 319
radi@@ 319
sitting 319
soa@@ 319
statement 319
sters 319
avoid 318
bby 318
birth 318
dropped 318
east 318
life@@ 318
she's 318
trains 318
cement 317
deposit 317
details 317
dor@@ 317
graph@@ 317
habit 317
hen@@ 317
ign 317
scienti@@ 317
suggest 317
15 316
charged 316
cket 316
dete@@ 316
financial 316
kne@@ 316
leg@@ 316
pun@@ 316
sign@@ 316
simple 316
assist@@ 315
industri@@ 315
laun@@ 315
meters 315
treatment 315
twelve 315
apple 314
australi@@ 314
concert 314
conditions 314
dust 314
height 314
object 314
reached 314
collect 313
countr@@ 313
demand 313
dollar@@ 313
higher 313
thin@@ 313
&apos;clock 312
basi@@ 312
bell 312
competi@@ 312
oppon@@ 312
plants 312
shape 312
shows 312
weal@@ 312
british 311
chee@@ 311
chil@@ 311
england 311
honour 311
immediately 311
it'll 311
lim@@ 311
scene 311
spr@@ 311
tures 311
anger 310
associ@@ 310
extra@@ 310
giving 310
loose 310
progress 310
spect 310
volution 310
drinks 309
moving 309
occa@@ 309
right. 309
toward 309
van@@ 309
vision 309
wre@@ 309
career 308
ggle 308
guest 308
heal@@ 308
however 308
issu@@ 308
lap@@ 308
military 308
stitu@@ 308
target 308
there. 308
wild 308
you've 308
aly@@ 307
boys 307
cooking 307
divor@@ 307
entry 307
fini@@ 307
ight. 307
ought 307
preci@@ 307
sir@@ 307
tour@@ 307
yment 307
advance 306
criminal 306
ke. 306
lau@@ 306
mit@@ 306
pol@@ 306
swing 306
a. 305
continue 305
courage 305
dy@@ 305
ef@@ 305
example 305
surface 305
commen@@ 304
degree 304
energy 304
hou@@ 304
items 304
ken@@ 304
mn 304
parties 304
ply 304
stress 304
band 303
breath 303
condition@@ 303
elect@@ 303
grass 303
keys 303
liber@@ 303
lts 303
room. 303
title 303
cry 302
ese 302
item 302
latest 302
lid 302
ome@@ 302
pleasant 302
rer 302
rose 302
sac@@ 302
shar@@ 302
victory 302
announ@@ 301
calcu@@ 301
houses 301
quo@@ 301
stol@@ 301
agre@@ 300
central 300
cies 300
custom 300
fat 300
letters 300
material 300
paint 300
required 300
video 300
ar 299
equ@@ 299
manage 299
nobody 299
oured 299
railway 299
sequ@@ 299
settings 299
steps 299
troops 299
appear@@ 298
blu@@ 298
escape 298
late@@ 298
manner 298
march 298
partment 298
population 298
reserved 298
rope 298
sources 298
specially 298
supply 298
absolu@@ 297
ber 297
cancel 297
conduct 297
hide 297
sb. 297
services 297
various 297
ai@@ 296
alco@@ 296
answ@@ 296
authority 296
contro@@ 296
costs 296
exhi@@ 296
font 296
forgot 296
go. 296
ingu@@ 296
profession@@ 296
ste 296
struck 296
virtu@@ 296
writer 296
yel@@ 296
alter@@ 295
comb@@ 295
condi@@ 295
dressed 295
gran@@ 295
lake 295
mmer 295
slo@@ 295
tall 295
ass@@ 294
blind 294
cian 294
electri@@ 294
fol@@ 294
ful@@ 294
ge. 294
impossible 294
introdu@@ 294
ior 294
itself 294
leader 294
mbo@@ 294
ghting 293
grou@@ 293
ines 293
lla 293
mbers 293
motion 293
officer 293
shment 293
unknown 293
ate@@ 292
bl@@ 292
corre@@ 292
medium 292
mur@@ 292
pot 292
seas 292
themselves 292
weak 292
ben@@ 291
child@@ 291
depends 291
dictionary 291
grand 291
missing 291
q@@ 291
temper 291
wasn 291
zes 291
bed@@ 290
booked 290
but@@ 290
corpor@@ 290
grow@@ 290
here@@ 290
ic@@ 290
prison@@ 290
stances 290
borrow 289
fool 289
los 289
murder 289
papers 289
parce@@ 289
twice 289
basketball 288
delivery 288
le-@@ 288
location 288
para@@ 288
stry 288
volume 288
yu@@ 288
enjo@@ 287
fast@@ 287
income 287
kick 287
original 287
platform 287
reti@@ 287
histor@@ 286
kitchen 286
llu@@ 286
somewhere 286
unity 286
wards 286
acci@@ 285
bag@@ 285
compe@@ 285
ddle 285
dep@@ 285
friendly 285
investi@@ 285
mic 285
rel 285
relea@@ 285
scale 285
slowly 285
tip 285
200@@ 284
area@@ 284
block 284
equal 284
illness 284
lace 284
patter@@ 284
sau@@ 284
sauce 284
shoulder 284
worried 284
zo@@ 284
circum@@ 283
denti@@ 283
evil 283
fel@@ 283
fit@@ 283
how@@ 283
ignor@@ 283
nearly 283
none 283
pid 283
princip@@ 283
ships 283
this. 283
where@@ 283
ature 282
break@@ 282
deliver 282
politics 282
purcha@@ 282
rights 282
rush 282
spor@@ 282
tongue 282
well. 282
competition 281
constitu@@ 281
delicious 281
oned 281
ree@@ 281
sel@@ 281
thick 281
watching 281
arch@@ 280
commit@@ 280
conclu@@ 280
did@@ 280
dings 280
grade 280
ing-@@ 280
laugh@@ 280
ma'@@ 280
process@@ 280
after@@ 279
broad@@ 279
ght-@@ 279
guaran@@ 279
mad 279
tted 279
understanding 279
cheap 278
joy 278
mean@@ 278
ney 278
opened 278
opportunity 278
receipt 278
tery 278
wouldn 278
aren 277
birds 277
debt 277
dece@@ 277
engli@@ 277
environment 277
mail@@ 277
mount 277
seemed 277
ably 276
access 276
damage 276
dit@@ 276
jim 276
yama@@ 276
animal 275
baseball 275
conveni@@ 275
customers 275
gging 275
hit@@ 275
import@@ 275
ini@@ 275
loa@@ 275
meaning 275
package 275
self. 275
starting 275
zen 275
alle@@ 274
aren't 274
furniture 274
gment 274
including 274
interest@@ 274
kill 274
orange 274
produce 274
quarter 274
through@@ 274
union 274
199@@ 273
audience 273
coo@@ 273
fishing 273
ker@@ 273
lined 273
madam 273
manufac@@ 273
mati@@ 273
perhaps 273
recei@@ 273
too. 273
wid@@ 273
ats 272
classi@@ 272
commer@@ 272
ean 272
k? 272
l? 272
mbi@@ 272
password 272
pul@@ 272
roa@@ 272
roun@@ 272
feelings 271
non@@ 271
reg@@ 271
salary 271
scu@@ 271
attend 270
extension 270
initi@@ 270
marke@@ 270
near@@ 270
sely 270
calls 269
decide 269
drea@@ 269
fau@@ 269
fried 269
micro@@ 269
printer 269
sand 269
telling 269
toi@@ 269
wave 269
convenient 268
effort 268
ential 268
false 268
hour@@ 268
include 268
memor@@ 268
passengers 268
piano 268
sence 268
settle 268
shower 268
toes 268
u.@@ 268
ad 267
assu@@ 267
cases 267
discussion 267
ee@@ 267
egg 267
individu@@ 267
li 267
physical 267
skil@@ 267
stream 267
supposed 267
yal 267
youth 267
gger 266
layed 266
mitted 266
nerv@@ 266
onto 266
politi@@ 266
skir@@ 266
thirty-@@ 266
ul 266
wound 266
ange@@ 265
blame 265
cil 265
craft 265
delete 265
dents 265
emergen@@ 265
eye@@ 265
maxi@@ 265
spirit 265
terminal 265
zu@@ 265
\ 264
admini@@ 264
configuration 264
ction@@ 264
flying 264
ment. 264
official 264
photo 264
rank 264
sp 264
spoke 264
suddenly 264
surprise 264
temper@@ 264
content 263
dama@@ 263
gli@@ 263
larly 263
movies 263
olympic 263
tied 263
umb@@ 263
all. 262
dogs 262
festi@@ 262
fifth 262
flow 262
ine. 262
normal 262
pm 262
se? 262
smar@@ 262
spell 262
syste@@ 262
wasn't 262
anybody 261
conten@@ 261
diet 261
dif@@ 261
john@@ 261
lovely 261
need@@ 261
options 261
placed 261
sir. 261
sympa@@ 261
syn@@ 261
tide 261
daily 260
enture 260
even@@ 260
forest 260
goal 260
mone@@ 260
respect 260
cher 259
column 259
conference 259
dangerous 259
decor@@ 259
emb@@ 259
exten@@ 259
im 259
mpa@@ 259
cance@@ 258
criti@@ 258
dow 258
ess@@ 258
hearing 258
hung@@ 258
lights 258
novel 258
reply 258
spare 258
yours 258
allow@@ 257
status 257
drin@@ 256
fortun@@ 256
technology 256
audi@@ 255
dou@@ 255
feel@@ 255
centra@@ 254
lion 254
are@@ 253
electric 253
stics 253
cious 252
condu@@ 252
physi@@ 252
play@@ 252
velo@@ 252
ctory 251
v 251
dding 250
effor@@ 250
neigh@@ 250
your@@ 250
bles 249
co 249
ske@@ 249
str@@ 249
would@@ 248
cap 247
jour@@ 246
– 246
ease 245
pho@@ 245
manu@@ 243
edu@@ 241
mee@@ 241
cess 239
doub@@ 239
sle@@ 239
twi@@ 238
sear@@ 237
enty 235
popu@@ 231
beg@@ 230
ital 230
materi@@ 230
immedi@@ 228
indu@@ 228
&apos;@@ 226
coffe@@ 226
hosp@@ 226
necess@@ 226
tok@@ 226
exp@@ 225
resu@@ 225
ither 224
mess@@ 224
econom@@ 222
ement 222
shir@@ 221
schedu@@ 220
opini@@ 217
writ@@ 217
* 216
ameri@@ 216
tha@@ 216
frien@@ 215
cop@@ 214
differ@@ 214
well@@ 214
000 213
ess 213
gni@@ 213
natu@@ 213
gui@@ 212
bre@@ 210
noon 210
ried 209
yester@@ 208
cky 207
langu@@ 207
tton 207
guar@@ 206
ques@@ 206
chri@@ 205
ily 205
sat@@ 205
sme@@ 205
argu@@ 204
quick@@ 204
vers@@ 204
peop@@ 201
perfe@@ 201
dat@@ 200
ind 200
lie@@ 199
ugh@@ 199
bab@@ 198
poin@@ 198
spee@@ 198
sty@@ 198
factor@@ 197
ima@@ 196
ort@@ 196
rage 195
lf@@ 193
safe@@ 193
meth@@ 191
reli@@ 191
fore 190
vate 190
wom@@ 190
exerci@@ 188
pon@@ 188
treat@@ 188
govern@@ 187
eld 185
selves 184
ose 183
ous@@ 183
fashi@@ 182
mal 181
paren@@ 181
passeng@@ 181
ughter 181
un 180
gy 179
mple 179
particu@@ 179
easi@@ 178
swit@@ 178
dele@@ 177
mul@@ 177
,@@ 176
wonder@@ 176
examin@@ 175
cred@@ 174
villa@@ 174
lla@@ 173
soci@@ 172
] 170
kit@@ 170
muse@@ 170
self 170
spon@@ 169
slow@@ 168
fron@@ 167
colu@@ 166
dying 166
gar 166
smi@@ 166
certain@@ 164
pas@@ 164
environ@@ 163
gure 163
ide@@ 163
servi@@ 163
him@@ 161
yea@@ 160
excu@@ 159
tomorro@@ 159
tty 159
[ 158
h, 157
medic@@ 156
evi@@ 155
actu@@ 154
desk@@ 154
org@@ 151
windo@@ 151
clea@@ 150
toge@@ 150
.. 149
again@@ 149
stom@@ 148
tle 147
bir@@ 146
gge@@ 146
stand@@ 146
let@@ 145
soldi@@ 143
mpi@@ 142
conven@@ 141
proble@@ 141
ssion@@ 141
fon@@ 140
mper@@ 140
} 140
availa@@ 138
sever@@ 138
{ 138
know@@ 137
origin@@ 137
verti@@ 137
moder@@ 136
presi@@ 135
mous 134
bli@@ 133
base@@ 132
dam 132
oly@@ 132
+ 131
avo@@ 131
shou@@ 131
adv@@ 128
apo@@ 128
pack@@ 127
won@@ 127
ffe@@ 125
marri@@ 125
beauti@@ 124
tis@@ 124
yor@@ 124
ath 123
emer@@ 123
ever@@ 123
q 123
volu@@ 123
autom@@ 122
ject 122
eth 121
reser@@ 121
ye 121
accor@@ 120
ility 120
rail@@ 120
termin@@ 120
dang@@ 119
favor@@ 118
point@@ 118
vice 117
vious 117
anima@@ 115
camer@@ 115
tries 115
ann@@ 113
sala@@ 113
chick@@ 112
informa@@ 112
crimin@@ 111
nit@@ 110
$@@ 109
solu@@ 109
orig@@ 108
situ@@ 108
fe 107
zer@@ 107
begin@@ 106
enty-@@ 105
net@@ 105
univers@@ 104
chine@@ 103
may@@ 103
twe@@ 102
chen 101
rough@@ 101
satur@@ 101
mas 100
mming 100
appoint@@ 99
appreci@@ 99
eg@@ 99
&apos@@ 98
certifi@@ 98
leng@@ 98
sorr@@ 98
dol@@ 97
oppor@@ 97
ener@@ 96
vel 96
gover@@ 95
contin@@ 94
streng@@ 94
abo@@ 93
ests 93
progre@@ 93
propos@@ 93
/@@ 92
insur@@ 92
j 92
= 91
please@@ 91
vide@@ 90
bagg@@ 89
finan@@ 89
gk@@ 89
knowle@@ 89
ree 89
depos@@ 88
egg@@ 87
& 86
self@@ 86
aga@@ 85
perform@@ 85
bot@@ 84
vir@@ 83
ream 81
kni@@ 80
press@@ 80
ight 79
raid 79
birth@@ 78
ij@@ 78
unti@@ 78
dem@@ 77
beha@@ 75
itary 75
libr@@ 75
techno@@ 75
ava@@ 74
� 74
pie@@ 72
?@@ 70
bah@@ 70
certi@@ 70
esca@@ 70
lugg@@ 70
..@@ 69
rought 69
them@@ 69
tten 68
exer@@ 67
ops 67
chur@@ 65
recent@@ 65
shoul@@ 65
div@@ 64
fail@@ 64
fren@@ 64
agree@@ 63
doll@@ 63
ano 62
dur@@ 62
ysi@@ 62
titu@@ 61
cess@@ 58
christ@@ 58
traffi@@ 58
usu@@ 58
excell@@ 57
ould 57
t's 56
cele@@ 54
probab@@ 53
# 52
ret@@ 51
suc@@ 50
> 49
~ 21
[@@ 17
— 17
< 15
@ 15
_ 15
#@@ 8
_@@ 7
=@@ 4
• 4
^ 3
 3
%@@ 2
&@@ 2
 1
(@@ 1
<@@ 1
~@@ 1
ร@@ 1
ห@@ 1
อ 1
ื@@ 1
madeupword0000 0
