ฉัน 163728
ที่ 126066
ของ 109350
คุณ 102472
ไม่ 86808
การ 77213
เขา 74097
. 73457
ได้ 70306
ใน 69616
มี 63007
เป็น 59878
จะ 59653
ให้ 55328
นี้ 48203
ความ 47814
ไป 46775
มัน 45930
กับ 36897
ว่า 32495
คน 31946
และ 31920
มา 30971
ทำ 28780
อยู่ 28520
เรา 27982
? 27702
อย่าง 27337
จาก 25970
มาก 23857
เธอ 22877
สามารถ 22581
หรือ 22509
ดี 20938
หนึ่ง 20040
, 19247
ต้องการ 18775
ด้วย 18594
ไหม 17629
์ 17401
นั้น 17103
แล้ว 17048
อะไร 16987
ผู้ 16358
กำลัง 16161
ใช้ 15789
ถูก 15749
กัน 15550
สำหรับ 15439
คือ 14965
ได้ไหม 14844
ต้อง 14456
ขึ้น 14339
ตัว 14199
ผม 14030
ทาง 13789
เวลา 13765
รับ 13554
แต่ 13223
วัน 13170
ๆ 12801
พวก 12655
งาน 11983
โดย 11865
สิ่ง 11782
ออก 11734
เรื่อง 11616
ลง 11593
ขอ 11161
ถึง 11161
พูด 11077
ล@@ 10838
สอง 10807
บาง 10664
ก@@ 10613
ม@@ 10610
ก 10524
ไร 10408
เพื่อ 10284
ไว้ 10259
บางอย่าง 10043
ตอน 9994
เมื่อ 9960
ดู 9766
คิด 9718
เงิน 9688
เข้า 9665
ร 9566
ล 9445
อีก 9419
น 9409
ด@@ 9391
ส@@ 9325
รถ 9189
ส 9173
อาหาร 9101
บ@@ 9084
กรุณา 8770
บน 8570
ชอบ 8439
โปรด 8422
แสดง 8421
น@@ 8396
อ@@ 8394
หน้า 8355
ก็ 8322
ตาม 8221
่ 8217
บ้าน 8047
นี่ 7894
ม 7867
ต่อ 7810
น้ำ 7808
ย@@ 7790
ต 7779
จริง 7770
ถ้า 7735
ร@@ 7684
0 7657
เลย 7638
รู้สึก 7636
ค@@ 7587
หลัง 7579
ไหน 7544
ง 7498
พวกเรา 7325
ห้อง 7289
ค่า 7222
ง@@ 7218
ป@@ 7211
แบบ 7178
รู้ 7173
ทำงาน 7167
ใหม่ 7121
ต@@ 7104
ท@@ 7094
บ 7068
ด 7028
หา 7024
ช่วย 6988
1 6847
เล่น 6801
ใช่ 6794
กว่า 6793
เกี่ยว 6626
คำ 6582
ปี 6560
ส่ง 6425
s 6383
เอา 6339
ครั้ง 6303
พ@@ 6289
นั่น 6288
บอก 6272
ย 6175
สิบ 6161
สาม 6146
า 6145
ว@@ 6114
อ 6107
ะ 5964
พบ 5935
ห้า 5929
บ้าง 5889
ยัง 5848
เห็น 5839
ก่อน 5831
ส่วน 5650
นำ 5636
ชาย 5625
น่า 5566
จ@@ 5562
อยาก 5514
ข@@ 5498
อัน 5444
ท 5330
ที่นี่ 5322
ตน 5321
ห@@ 5308
ที่สุด 5291
ข้อ 5231
ราคา 5054
อย่า 5024
ช@@ 5022
ใจ 5017
ว 4996
ชื่อ 4967
ค 4965
เกิน 4954
แค่ 4939
จำนวน 4922
เดินทาง 4903
ใหญ่ 4835
นัก 4828
ทั้งหมด 4824
ใช่ไหม 4765
ถ@@ 4753
ิ 4736
ี 4721
2 4710
เ 4670
เกิด 4656
ฟ 4638
ผ่าน 4627
จะไป 4570
เครื่อง 4570
เคย 4551
ชีวิต 4547
ซื้อ 4495
เสียง 4481
เมือง 4467
โรง 4453
ภาพ 4437
ผิด 4430
ฟ@@ 4422
แก่ 4411
เริ่ม 4378
หนังสือ 4352
พยายาม 4346
สูง 4328
จะทำ 4322
หลาย 4310
ควร 4305
เอง 4227
สี 4223
นาน 4195
กลับ 4176
วิ@@ 4157
ซ@@ 4156
เปิด 4155
ใคร 4090
โ@@ 4080
ภาษา 4067
ออกไป 4037
มือ 4024
ลูก 4022
สัก 4011
กลาง 4006
เรือ 3961
เพราะ 3934
เลือก 3915
ขอบคุณ 3904
เด็ก 3894
ญี่ปุ่น 3888
ตรง 3871
อื่น 3856
ประเทศ 3837
ขาย 3806
- 3791
เรียน 3791
ปัญหา 3774
้ 3770
กระ@@ 3762
เท่า 3751
ช่วง 3715
อากาศ 3714
ด้าน 3712
ใส่ 3709
สาย 3703
เขียน 3699
จน 3691
รถไฟ 3681
บริษัท 3669
เร็ว 3649
ประ@@ 3631
ซึ่ง 3622
ระหว่าง 3612
แ@@ 3595
เดิน 3592
า@@ 3571
e 3545
เล@@ 3537
สี่ 3535
ตั้ง 3524
เอ@@ 3518
คืน 3516
ผ@@ 3491
ร้อน 3486
ศ@@ 3477
เป็น@@ 3469
เสียใจ 3466
เถอะ 3457
ใด 3440
คร@@ 3424
เก็บ 3413
เสีย 3407
ทั้ง 3401
สำคัญ 3401
หวัง 3386
เพื่อน 3386
แห่ง 3379
จ่าย 3376
ใบ 3369
กล@@ 3359
เปล่า 3342
สร้าง 3331
" 3315
มา@@ 3312
ตา 3298
ขนาด 3293
เปลี่ยน 3287
เข้าใจ 3273
รอ 3271
สั่ง 3247
ิ@@ 3236
% 3228
เหมือน 3225
กระเป๋า 3214
อังกฤษ 3202
ั 3164
ที่@@ 3159
ไฟ 3158
b 3156
ู 3156
หล่อน 3139
ดัง 3119
ผู้หญิง 3115
ยา 3107
อาจ 3091
มากกว่า 3082
ฟัง 3050
ขอโทษ 3045
พัก 3036
ติด 3033
อก 3026
กิน 3015
ข้อมูล 3014
นอน 3005
โทรศัพท์ 2994
ตกลง 2983
เหล่า 2983
เย็น 2980
ร้าน 2977
เดือน 2965
ถนน 2955
ผล 2949
จัด 2946
กร@@ 2929
ป 2918
ชั้น 2899
ทุก 2895
อร 2879
คล@@ 2869
หน@@ 2860
ประมาณ 2844
รา@@ 2824
ที 2819
แรก 2811
หก 2780
ภาย 2766
เป็นการ 2760
น้ำ@@ 2759
ดื่ม 2758
... 2737
หมด 2737
โมง 2734
ร้อย 2724
ี@@ 2724
ได้ยิน 2722
5 2718
ไ@@ 2711
หน่อย 2704
โทร 2696
ไปยัง 2695
3 2685
หยุด 2685
) 2680
หล@@ 2675
( 2670
รอบ 2658
โต๊ะ 2657
แข่งขัน 2656
ตาย 2654
เรียก 2654
เข้าไป 2653
เพียง 2653
แ 2652
่ง 2651
สำเร็จ 2634
พ 2621
พรุ่ง 2617
ชุด 2598
็ 2596
นาที 2591
นาฬิกา 2588
โลก 2588
ร่วม 2586
พิมพ์ 2585
่ง@@ 2582
หนัก 2578
กำหนด 2577
สนใจ 2573
จอง 2571
เบ@@ 2566
อง 2550
ตำแหน่ง 2548
นา@@ 2539
ความคิด 2538
ท่าน 2537
รายการ 2533
นิ@@ 2519
เสมอ 2519
จดหมาย 2512
อ่าน 2509
r 2490
รวม 2483
ช 2480
a@@ 2466
ข่าว 2461
จะมี 2457
บริการ 2446
ต่างๆ 2432
ลด 2427
จะเป็น 2426
ตี 2412
e@@ 2403
ใกล้ 2399
ตั๋ว 2396
รัก 2394
รูป 2380
่@@ 2380
พา 2375
่น 2371
ว่าจะ 2370
ตก 2367
สา@@ 2357
หา@@ 2343
ยินดี 2342
สาว 2342
ต่อไป 2326
แรม 2326
เดียว 2321
ปล@@ 2315
ระบบ 2315
เร@@ 2315
เพิ่ม 2312
รั@@ 2311
เค@@ 2311
ปิด 2308
ยาก 2307
้น 2302
ตัวเอง 2301
ธุรกิจ 2301
นะ 2298
โรงเรียน 2296
ข้าง 2289
กลุ่ม 2276
เกิดขึ้น 2273
วันที่ 2270
ที่อยู่ 2261
ชั่วโมง 2256
สู่ 2244
a 2243
ประตู 2237
อา@@ 2237
แรง 2235
่า 2233
จ 2228
รู้จัก 2225
นั่ง 2224
เด@@ 2218
ใช้เวลา 2218
ทำการ 2214
์@@ 2214
ฉ@@ 2206
t 2200
ทิ้ง 2198
สวัสดี 2198
i 2196
พิเศษ 2195
จุด 2192
ชาว 2191
่น@@ 2190
หม@@ 2189
แน่นอน 2185
อนุญาต 2180
ทาน 2168
เว@@ 2165
ชา 2155
สุข 2149
ไม้ 2148
้า@@ 2147
วาง 2145
สินค้า 2145
แนะนำ 2141
ทุกคน 2125
ยา@@ 2124
ขาด 2117
ขับ 2109
ที่ถูก 2107
เท่านั้น 2105
ุ 2100
o@@ 2099
i@@ 2097
เล็ก 2093
o 2092
ถาม 2089
สัปดาห์ 2086
พัน 2081
เกรง 2080
สัญญา 2073
ข้อความ 2064
ซ 2062
มอง 2061
ง่าย 2056
แฟ้ม 2056
การ@@ 2055
วิ่ง 2055
อบ 2054
เจ็ด 2051
เล็กน้อย 2046
จัดการ 2039
กลับมา 2037
กา@@ 2037
เสนอ 2028
some 2026
ฤดู 2025
body 2022
น้อย 2021
เ@@ 2017
ติ 2011
วิธี 2010
ริ@@ 2008
หมายเลข 2008
หน้าต่าง 2007
ที่นั่น 2004
ฝ@@ 2000
ศึกษา 1984
ชนิด 1977
เม@@ 1977
กฎหมาย 1974
ัด 1974
ประชุม 1970
ที่นั่ง 1964
4 1960
สม@@ 1956
ับ 1954
ชน 1950
ตลอด 1949
ร้อง 1949
เข@@ 1947
แปด 1945
เพลง 1944
ปล่อย 1943
หัว 1938
อด 1938
อายุ 1937
ตัด 1931
กล่าว 1929
เท@@ 1928
ระดับ 1926
่า@@ 1924
บัตร 1916
พระ@@ 1916
โอ 1915
มิ 1912
าน 1909
้า 1908
ลิ@@ 1902
ไกล 1899
r@@ 1892
ลอง 1888
นอก 1883
เซ@@ 1882
นา 1881
ประโยชน์ 1881
เต@@ 1880
พ่อ 1868
ยี่สิบ 1866
เนื้อ 1866
โ 1865
โรค 1847
ช่วยเหลือ 1844
แม่ 1844
ตำรวจ 1842
ัก@@ 1842
เช่นนั้น 1839
สัตว์ 1835
เชื่อ 1834
ิน 1833
จับ 1812
ผ้า 1810
แต่งงาน 1808
รับประทาน 1806
เก@@ 1806
อย่างนั้น 1804
เช้า 1802
เสร็จ 1799
โต 1797
อร์@@ 1794
ทำไม 1790
ตก@@ 1781
ทหาร 1779
ั@@ 1779
ตรวจสอบ 1778
อน 1778
ว่าง 1777
เห@@ 1776
้ง 1770
h 1768
l 1768
รักษา 1767
9 1764
โอกาส 1762
: 1760
มากมาย 1750
ละ 1748
เป็นความ 1743
ติ@@ 1742
ชนะ 1740
เลิก 1740
ยาว 1736
พร้อม 1731
ผิดพลาด 1730
ู@@ 1730
ธ@@ 1729
ควบคุม 1727
จึง 1726
ลูก@@ 1724
เจอ 1724
ถูกต้อง 1723
สบาย 1722
เสื้อ 1721
ตัดสินใจ 1715
หย@@ 1715
โอ้ 1715
เสีย@@ 1713
6 1712
ฮ@@ 1712
ค่อนข้าง 1706
ชาติ 1706
เจ@@ 1704
ครอบครัว 1699
ทุกอย่าง 1693
ตร@@ 1692
ลม 1692
ต้น 1691
แข็ง 1691
/ 1687
ปฏิบัติ 1683
ล่ะ 1681
กระทำ 1680
ผู้@@ 1679
อย่างมาก 1676
นักเรียน 1672
เสื้อผ้า 1672
ช่าง 1670
าม 1666
จำ 1665
ะ@@ 1657
พอ 1656
เท้า 1649
สถานที่ 1646
เก้า 1646
ขณะ 1640
ุ@@ 1638
ทราบ 1635
บันทึก 1635
ยนต์ 1635
ญ 1634
เหนือ 1631
สถานี 1630
แย่ 1629
ร้าย 1624
คู่ 1622
พิ@@ 1622
กลัว 1619
เพ@@ 1619
เช@@ 1616
คม 1612
วน 1611
ต่อ@@ 1608
กรรม 1603
ิน@@ 1601
๊@@ 1600
ลา 1598
ม้า 1597
กาแฟ 1591
ดิ@@ 1588
ฝน 1588
ลา@@ 1588
กร 1587
สงสัย 1583
คัน 1578
กีฬา 1577
ต่ำ 1577
ผล@@ 1573
อร์ 1573
แน่ใจ 1573
พื้น 1571
กอง 1570
ถือ 1569
้ม 1569
ใจ@@ 1567
สุ@@ 1566
แยก 1565
่ม@@ 1564
เข้า@@ 1563
ควรจะ 1557
ข้าม 1552
ญ@@ 1552
ชิ@@ 1551
ชิ้น 1549
คนที 1547
c 1546
จบ 1543
ลี 1543
เที่ยว 1543
คืนนี้ 1540
ภรรยา 1540
ทำ@@ 1539
ัก 1534
ับ@@ 1533
ติดต่อ 1531
เครื่องบิน 1531
ตัว@@ 1530
หาย 1529
ดูแล 1528
ตั้งแต่ 1527
โทษ 1526
จง 1525
พล@@ 1523
กี่ 1514
อำนาจ 1514
ัน 1512
ประเภท 1510
n@@ 1508
สวน 1508
รัฐบาล 1507
นิยม 1502
าง 1500
8 1498
เอ 1495
อง@@ 1493
อด@@ 1489
ตา@@ 1488
สภาพ 1484
ตะ@@ 1483
ลืม 1483
d 1482
ปกติ 1480
เท่าไหร 1479
ณ 1477
อย@@ 1473
ปลา 1468
ร์ 1468
ทะเล 1465
ใต้ 1462
เป@@ 1461
เส@@ 1460
บุคคล 1456
สุดท้าย 1454
t@@ 1453
เต็ม 1451
แถว 1449
ีย@@ 1444
้@@ 1444
เอกสาร 1438
ผลิต 1432
จีน 1429
คง 1427
ไหร่ 1427
ยอม 1425
คอย 1424
เยน 1424
มิ@@ 1421
ำ 1417
แจ้ง 1410
ยอมรับ 1407
ครึ่ง 1399
ระ@@ 1396
กระดาษ 1394
เซ 1392
หว@@ 1387
ดอลลาร์ 1386
หน้า@@ 1385
อาการ 1383
ทาง@@ 1382
ชม 1381
ฝ่าย 1381
รุนแรง 1368
ก็ได้ 1367
ก็ตาม 1365
บา@@ 1365
ทันที 1361
ตรง@@ 1360
เน@@ 1360
ดนตรี 1358
S 1354
บุหรี่ 1354
หนาว 1351
หลัก 1350
p 1348
เท 1346
ราย 1345
ช้า 1341
พิจารณา 1339
ภาพยนตร์ 1334
คน@@ 1331
ยิ่ง 1330
c@@ 1328
ป่วย 1327
แบ@@ 1327
ดี@@ 1326
พื้นที่ 1326
ณ@@ 1324
M 1321
ต่อสู้ 1320
โกรธ 1320
อั@@ 1316
กังวล 1314
ประสบ 1313
สนุก 1313
โปรแกรม 1312
ปร@@ 1311
ไหล 1309
ย้าย 1306
ลักษณะ 1305
แสง 1304
ยิง 1302
ย์ 1302
เย@@ 1300
จะใช้ 1299
ต่าง 1296
สอน 1294
อุ@@ 1294
สนับสนุน 1293
คา@@ 1291
คดี 1290
ภาษี 1290
ประจำ 1288
คุย 1281
ขา 1279
ข้างนอก 1279
สี@@ 1279
เที่ยวบิน 1278
โอ@@ 1278
เชิญ 1277
กลาย 1276
รูปแบบ 1274
เก่ง 1274
ตรวจ 1272
สามสิบ 1272
ทุน 1268
เปลี่ยนแปลง 1262
ธ 1261
ดูเหมือน 1258
บุ@@ 1258
คุณ@@ 1255
ละ@@ 1255
ตอบ 1253
บิน 1252
เพิ่ง 1252
ทีม 1251
ครู่ 1249
s@@ 1248
เจ้า@@ 1248
จำเป็น 1247
สุขภาพ 1247
นั@@ 1246
หนัง 1245
อันตราย 1245
ลับ 1244
รี 1240
7 1239
มัก 1238
ห 1237
ทา 1236
เอา@@ 1235
ยุ่ง 1234
ึ@@ 1233
คำพูด 1230
แจ@@ 1227
P 1225
พนักงาน 1225
เค 1225
โร@@ 1224
จ้าง 1222
สุด 1222
เนื่อง 1221
เส้น 1219
สูบ 1216
ยก 1215
กา 1214
รุ@@ 1214
เกม 1214
เด 1214
หิน 1212
อารมณ์ 1211
รวดเร็ว 1209
แผ่น 1209
ถ่าย 1207
เยี่ยม 1205
ซี 1204
หนังสือพิมพ์ 1203
ต์ 1202
รายงาน 1201
พยาบาล 1200
ลิ 1200
เฟ@@ 1197
ขวา 1194
สมาชิก 1193
หมาย 1193
เหลือ 1192
วง 1191
ต่างประเทศ 1190
นาย 1190
ัน@@ 1190
จำเป็นต้อง 1188
สอบ 1188
อบ@@ 1188
เฉ@@ 1187
กุญแจ 1186
มาจา 1185
ือ@@ 1184
เลี้ยง 1184
ไร้ 1184
ปลอดภัย 1183
ผู้คน 1177
ยังคง 1177
ื@@ 1177
st 1176
แก้ไข 1176
สัมพันธ์ 1175
เช่า 1174
ตัดสิน 1173
เพราะว่า 1172
คอมพิวเตอร์ 1168
ษ@@ 1168
ปรับ 1166
พัฒนา 1165
อธิบาย 1163
ครู 1161
ย่อม 1160
รอย 1160
นาง 1159
หรือยัง 1159
้น@@ 1159
เริ่มต้น 1157
ลง@@ 1156
ตาม@@ 1155
วง@@ 1153
ฉบับ 1152
y 1150
สวย 1149
สำนัก 1149
ปัจจุบัน 1147
ยืน 1145
ละคร 1145
ศาล 1144
หน้าที่ 1143
ความเห็น 1142
ให้เป็น 1142
ตัวอย่าง 1141
ใช้จ่าย 1141
m 1140
นาย@@ 1140
เดียวกัน 1139
รา 1137
ศูนย์ 1137
รับ@@ 1136
ฐาน 1135
สงคราม 1135
รองเท้า 1133
ไทย 1133
ริ 1131
มักจะ 1130
แก้ว 1128
วา@@ 1126
ไม่@@ 1126
ื่อ 1124
น้ำมัน 1122
บังคับ 1122
ดา 1121
โก 1121
เด็กๆ 1120
ทางการ 1119
บ่าย 1119
หนี 1118
เล่ม 1118
สุนัข 1116
บริเวณ 1115
ปาก 1114
ภัย 1113
ระวัง 1113
เลข 1110
บาท 1109
เก่า 1107
่าน 1107
เหรียญ 1106
รม 1105
สมัย 1103
ร์@@ 1102
าน@@ 1102
นิ้ว 1101
พา@@ 1099
บัญชี 1098
เป็นไปได้ 1096
g 1095
หาก 1095
หมอ 1093
หัว@@ 1093
แตกต่าง 1093
แม้ 1093
เลื่อน 1092
แน่น 1087
จำ@@ 1086
รีบ 1085
อิ@@ 1085
ขโมย 1084
อ่อน 1084
ที่แล้ว 1083
ยุ@@ 1082
แทน 1082
A 1081
สนาม 1080
คะแนน 1079
กอล์ฟ 1077
ด้วยกัน 1077
พอใจ 1077
กล่อง 1075
งานเลี้ยง 1075
ปุ่ม 1074
รหัส 1074
คอ 1073
สถานการณ์ 1071
จาน 1069
เตอร์ 1068
ิก 1066
อม 1065
น้ำหนัก 1064
สัน 1063
ซิ@@ 1058
หญิง 1057
ทน 1055
ต้นไม้ 1053
แส@@ 1051
ป้องกัน 1050
วด 1045
ตัน 1044
ตั้งใจ 1044
สามี 1042
ิด 1042
โดย@@ 1042
หลับ 1041
ท่า 1039
สั้น 1038
เครื่อง@@ 1036
ค้า 1035
ไป@@ 1034
ไอ 1032
ัด@@ 1030
เบ 1030
มี@@ 1028
เน 1028
กว้าง 1027
ติด@@ 1025
เมตร 1025
็@@ 1024
ชิ 1023
u 1022
เสียหาย 1022
คำถาม 1021
แว@@ 1021
าก 1020
ตลาด 1016
วิธีการ 1016
ชี@@ 1015
ประกาศ 1015
ระยะ 1015
ล้าง 1014
เงิน@@ 1014
ดีใจ 1013
แล@@ 1013
บอล 1012
สังคม 1010
แตก 1010
ยอด 1008
เตรียม 1006
มั@@ 1005
หนี้ 1005
เมื่อวาน 1005
ส่วนใหญ่ 1003
นัด 1002
ัง 1002
นิสัย 1000
แต่ละ 999
ปฏิเสธ 998
่ว@@ 997
คำ@@ 996
ทั่วไป 996
ประกอบ 996
สิทธิ 995
ไง 995
กว@@ 994
แพทย์ 994
l@@ 992
เดิม 991
ตุ@@ 989
่อ@@ 988
ประเทศ@@ 986
ยกเลิก 986
ปฏิ@@ 984
k 983
อื่นๆ 983
เพื่อให้ 983
มนุษย์ 982
บ่อย 981
เต็มไปด้วย 981
อ่อน@@ 980
แก้ 980
ต้อนรับ 977
ท่องเที่ยว 976
สวยงาม 976
ทำลาย 972
อาทิตย์ 969
ธนาคาร 968
เหตุผล 968
เผ@@ 966
เช่นนี้ 965
กุ@@ 963
ไม่ค่อย 963
ฐานะ 962
เต็มที่ 962
ลบ 961
ทำได้ 960
ขยาย 958
อุปกรณ์ 958
เรียบร้อย 958
ข้อ@@ 957
เหตุการณ์ 957
อุบัติเหตุ 954
ภา@@ 951
โจ@@ 951
เครื่องมือ 950
เลือด 945
ค้นหา 944
ช่อง 942
แผนการ 942
ชื่อเสียง 940
กรณี 937
ฆ่า 937
่ว 935
่อง@@ 935
มหาวิทยาลัย 934
ใดๆ 933
แค@@ 930
T 929
สาร 928
อย่างนี้ 926
ทร@@ 925
ห้าม 925
เหมาะสม 925
จุด@@ 924
น้อง 923
ว่ายน้ำ 923
จับ@@ 921
้อ@@ 921
ฟัน 920
เขาอ 918
ซ้าย 917
๋@@ 916
บรร@@ 914
สะ@@ 914
อาหารเย็น 913
ทัน 912
ลาย 912
จัด@@ 910
เช็ค 910
แต@@ 910
ดิน 909
ดำเนินการ 908
บท@@ 908
สั@@ 908
ธรรมดา 907
ิง 907
แป@@ 905
อักษร 904
อาจจ 904
C@@ 901
C 899
เล 899
ชำระ 898
แม@@ 897
เหมาะ 896
แพง 895
ได้@@ 895
ที่สุดใน 893
เช่น 893
รับผิดชอบ 892
เหนื่อย 892
โด@@ 892
ไฟฟ้า 892
ซา 891
ดา@@ 891
ู่ 891
ี่ 887
ประชาชน 885
วันหยุด 885
แก@@ 884
ในที่สุด 884
ชา@@ 883
ลูกชาย 883
ตื่นเต้น 882
าด 881
หวัด 880
S@@ 879
K 878
ของขวัญ 877
L 876
บัส 876
ปวด 876
เจ็บ 876
เป็นไป 875
& 874
ธิ@@ 874
หู 874
แต่@@ 874
เจ้า 873
เตียง 873
แบ่ง 873
ในเมือง 873
แท@@ 870
D 869
ธรรมชาติ 869
เช่นกัน 869
เก็ต 868
แนว 868
้อย 867
ป้าย 866
ตั้ง@@ 865
พ้น 865
ภ@@ 865
อเมริกา 865
๊ 865
รว@@ 864
สัญญาณ 864
สิทธิ์ 864
ขัด 862
ทั้ง@@ 862
อิ 861
ทั่ว 858
ร่างกาย 858
ผู้จัดการ 857
ป่า 855
ี่@@ 855
เพิ่มขึ้น 855
เล่า 855
ไม่ว่า 854
p@@ 853
ได้ที่ 852
ปืน 851
ฮ 851
ที่ทำงาน 850
ยืนยัน 850
วี@@ 850
นก 849
รส 849
สิ 849
มพ@@ 848
มะ@@ 848
โล@@ 848
ธรรม 847
ียง 847
็ด 847
ข้าว 846
สาย@@ 846
้าง 846
วัด 845
ื้อ@@ 845
แผนก 845
เหย@@ 843
ไล่ 843
n 842
สัง@@ 842
แขน 842
ชัดเจน 841
ตู้ 841
สมัคร 841
แดง 840
ทุ@@ 839
เท่าที่ 839
ยอดเยี่ยม 838
ระเบิด 838
ณ์ 837
แผนที่ 837
ราว 836
เวอร์ 835
ทุกวัน 834
พอ@@ 833
ียน 833
บริ@@ 832
โครงการ 832
แฟ@@ 831
้ว@@ 831
ระ 829
หุ@@ 829
ค์ 828
ฝาก 828
วิชา 828
เล็กๆ 828
พี่ 827
โค@@ 827
ผสม 825
เขต 823
ท่า@@ 821
ไวน์ 821
u@@ 820
ก็@@ 820
ีด 820
กลิ่น 819
ปรารถนา 818
ล้มเหลว 818
ให้มี 818
นม 817
อาชีพ 817
บางครั้ง 816
เบียร์ 816
เปล@@ 816
แพ@@ 816
I 815
คา 814
น่า@@ 814
แพ้ 814
้อน 812
อนาคต 811
m@@ 809
ไ 809
้อม 808
ข้างหน้า 807
สง@@ 806
้อ 806
เกือบ 805
อย 804
ฮา 804
ปลาย 803
โตเกียว 803
ทอง 801
แขก 801
ดิน@@ 800
่อ 800
ฉลาด 799
วางแผน 799
ของ@@ 797
ด่วน 797
มั่นใจ 797
มุม 797
เตือน 797
ดำ 795
ประกัน 794
สิ้น 794
แม่น้ำ 793
สต์ 792
ว่าการ 791
เครื่องดื่ม 791
ผิว 788
หมุน 788
พร@@ 787
อาศัยอยู่ 787
เศรษฐกิจ 786
ถึง@@ 785
ดอลล่าร์ 784
B 783
ก้อน 783
ภาพ@@ 783
โดยสาร 782
กระโดด 781
ไปรษณีย์ 781
น้ำตาล 780
อาบ 780
กล้า 779
ออก@@ 779
นิด 778
โม@@ 777
ที่มา 776
ประวัติศาสตร์ 776
ประสบการณ์ 775
ัง@@ 774
ถัดไป 773
สวม 773
ห่าง 773
อัน@@ 773
ไข@@ 773
h@@ 772
เมา 771
หัวใจ 770
คุณภาพ 769
จันทร์ 769
มีชื่อ 769
ึก@@ 769
่อน 768
ไอ@@ 767
ฝั่ง 766
โชคดี 766
โปร@@ 766
ตระ@@ 765
ลำ 765
สะดวก 765
ขั้น 764
ทา@@ 764
จราจร 763
สมบูรณ์ 763
E 762
ให้การ 762
อิน@@ 761
เดี๋ยวนี้ 761
่าย 761
บท 760
้อง@@ 760
ต้น@@ 759
แน่ 759
แผน 758
O 757
วา 757
พ่อแม่ 755
มือ@@ 755
เกี่ยวข้อง 755
เจ 755
ดึง 754
อัตรา 754
เฉพาะ 753
รบกวน 752
ลั@@ 751
ส์ 751
เหล้า 751
คว@@ 750
ลูกบอล 750
ือง 750
ซิ 749
มีอยู่ 749
! 748
คั@@ 748
ท้อง 748
อย่าง@@ 748
แม่@@ 748
เส้นทาง 747
เพื่อที่ 745
ค่ำ 744
ทอด 744
กัน@@ 742
คู่@@ 742
จิตใจ 742
สนามบิน 742
่วง 741
ตลก 740
มหา@@ 740
สบายดี 739
อก@@ 739
ดอกไม้ 738
พักผ่อน 738
ภาวะ 738
จนถึง 737
หลุม 737
ดู@@ 735
คอน 734
ยาม 732
แห้ง 732
จำกัด 731
R 730
ขนมปัง 730
ดีๆ 730
ลึก 729
วิจารณ์ 729
ึง 729
เออ 728
ยู่ 727
เติม 727
มากนัก 726
ี้ 725
ืน 725
บี@@ 724
บั@@ 723
สงบ 723
อนุ@@ 723
อาคาร 723
ุม 723
ขบวน 722
ปอนด์ 722
ลูกค้า 722
ใบไม้ 722
จุ@@ 721
ชัด 721
แข็งแรง 721
น์ 720
แอ@@ 720
เจ้าหน้าที่ 719
เสี่ยง 719
้อง 718
ที่ดิน 717
น่าสนใจ 717
ลอนดอน 717
อเมริกัน 717
เทนนิส 717
ใน@@ 717
ปราศจาก 716
เก 716
กะ@@ 715
ตื่น 715
ดอก 714
ทิศ 714
เมื่อคืน 712
แข่ง 712
กำ@@ 711
มื้อ 711
หร@@ 711
ดวง@@ 710
ฝัน 710
อน@@ 710
สำ@@ 709
โกะ 708
ลำ@@ 707
ไข่ 707
G 706
สาธารณะ 704
ปั@@ 703
รี@@ 703
เบื่อ 703
เรื่องการ 703
รายละเอียด 702
จอห์น 701
รางวัล 701
ห่อ 701
ี่ย@@ 701
แย@@ 701
ซัก 700
พัด 700
อาศัย 699
M@@ 698
ล้าน 698
โซ@@ 698
โทรทัศน์ 698
่อง 698
ขี่ 697
มีเ 697
โห@@ 697
อยากได้ 696
ทะ@@ 695
ล่า 695
อย่างแน่นอน 695
ฝรั่งเศส 694
ลดลง 693
แท็กซี่ 693
ใบเสร็จ 693
นิดหน่อย 692
โจมตี 692
ร่าง 691
จิ 689
ึ่ง@@ 689
เคลื่อน 688
เรียนรู้ 688
อืม 687
โป@@ 687
in 686
รี่ 686
ระมัดระวัง 685
วัย 685
้ง@@ 685
คนเดียว 684
x 683
โน 683
ฟุตบอล 682
ความหมาย 681
ตาราง 681
สูงสุด 681
อาย 680
แล่น 680
ท์ 679
ศิลปะ 679
เซ็น 678
่าง@@ 678
ทำความสะอาด 677
กี้ 676
จอด 675
จิ@@ 675
หนุ่ม 675
ตอ 674
ศาสนา 674
แถบ 673
จะ@@ 672
นี 672
ใช้ได้ 672
ขัด@@ 671
ทีเดียว 671
ฟ้า 671
โดน 671
ตล@@ 670
การณ์ 669
ผลไม้ 669
ขวด 668
ฝึก 668
รร@@ 667
สมควร 667
เหตุ 667
ไม@@ 667
ดำเนิน 666
ดับ 664
หิมะ 664
แลนด์ 664
มั่น 662
แดด 662
โง่ 662
หายไป 661
รังเกียจ 660
วิ 660
ใส 660
ฝึก@@ 659
คลุม 658
จอ 658
อาหารเช้า 658
กฎ 657
ตึก 657
ตรา 656
ทำให้เกิด 656
A@@ 654
อิน 654
เดี่ยว 654
เดิน@@ 652
เจ้าของ 651
วิทยุ 650
สิน@@ 650
เนื้อ@@ 650
มน@@ 649
ู้@@ 649
ขน 648
ปรากฏ 648
ขน@@ 647
ยก@@ 647
จา 646
ลำบาก 646
ไก่ 646
on 645
นี@@ 645
เพลิดเพลิน 645
จนกระทั่ง 644
ซ่อม 644
พืช 644
ก่อ@@ 643
ถ้วย 643
เลือกตั้ง 642
ยุโรป 641
เตรีย@@ 641
โก@@ 641
สลัด 640
หญ้า 640
แหล่ง 640
ขย@@ 637
สายตา 637
ุด@@ 637
คลื่น 636
อี 636
สาร@@ 635
หรอก 634
เกล@@ 634
แท้ 634
คิดถึง 633
โยน 633
ความ@@ 631
หัวเราะ 631
ดูเหมือนว่า 630
บรรยาย 630
ภายใต้ 630
อย่างดี 630
พายุ 629
ภัตตาคาร 629
าะ@@ 629
้วน 629
ตอนเช้า 628
คำตอบ 627
มีผล 627
สร@@ 627
โฆษณา 627
้ำ 627
วัว 626
ศีรษะ 626
แน@@ 626
d@@ 625
ทดสอบ 625
ุด 625
้าง@@ 625
ศาสตร์ 624
เจ็บปวด 624
พลาด 623
เงียบ 622
เสียงดัง 622
อะ@@ 621
เกาะ 621
เหล@@ 621
เห็นด้วย 621
ได 621
สด 620
ศัตรู 619
สหรัฐอเมริกา 619
่ม 618
กิ@@ 617
วาง@@ 617
เครื่องหมาย 617
ไหม้ 617
ลาย@@ 616
ซู 615
นโยบาย 615
ปี@@ 615
หน่วย 615
เฮ 615
เรียกร้อง 614
็น 614
ปรา@@ 612
พัง 612
ใบ@@ 612
บาดเจ็บ 611
ไล@@ 611
ที่ว่า 610
ประหลาดใจ 610
พื้นฐาน 610
อะ 610
เชื่อว่า 610
ขาว 609
ชั่ว@@ 609
จัง 608
นับ 608
ยาน 608
เรือน 608
เสริม 608
เสิร์ฟ 608
ครอบ@@ 607
ตกใจ 607
รัฐ 607
ู่@@ 607
เหล็ก 607
ขวาง 606
ทัวร์ 606
ล่าง 606
สตรี 606
เปิดเผย 605
แผล 605
ทัน@@ 604
ท่าทาง 604
สว@@ 604
ือ 604
เค้ก 604
เป็นจริง 604
คนใน 603
ตี@@ 603
อา 603
เพศ 603
ทุกๆ 602
วั@@ 602
ก็จะ 601
สภา 601
โช@@ 601
บาน 600
ไม้@@ 600
ครั้งที่ 599
คุณสมบัติ 599
บันได 599
อุตสาหกรรม 599
ไหว 599
กระตุ้น 598
กำไร 598
ต่อต้าน 598
ผลิตภัณฑ์ 598
ท้าย 597
หมื่น 597
เชื่อมต่อ 597
แล้ว@@ 597
กรอก 596
ตร 596
ลำดับ 596
กระท@@ 595
จู@@ 595
ดาว 595
รอง 594
เบอร์ 594
แซ@@ 594
ปกครอง 593
คราว 592
บ้าน@@ 592
สอบ@@ 592
เศร้า 592
ครอง 591
ยิ้ม 591
สูญเสีย 591
หนา 591
อล 591
ประเด็น 590
อัด 590
ใ@@ 590
ขณะนี้ 589
บุรุษ 589
บี 588
ยังมี 588
ยุติธรรม 588
ละเอียด 588
ส่วน@@ 588
ออกแบบ 588
ลอย 587
าย@@ 587
ในไม่ช้า 587
ทั@@ 586
รับรอง 586
หัน 586
ดุ@@ 585
ภูมิ@@ 585
ระบุ 585
แม้ว่า 585
โคร@@ 585
ปริมาณ 584
ปลูก 584
วันอาทิตย์ 584
วิทยาศาสตร์ 584
เครื่องจักร 583
กล้อง 582
มั้ย 582
ยืม 582
รบ 582
อร่อย 582
ภูเขา 581
สัก@@ 581
เร็วๆนี้ 581
ซ่อน 580
เงินสด 580
ฆ@@ 579
ย่าง 579
เจน 579
พนัน 578
สังเกต 578
แช@@ 578
ขัน 577
คุ้ม@@ 577
จริง@@ 577
อุณหภูมิ 577
ึ่ง 577
เขียว 577
วิจัย 576
หัวหน้า 576
พันธุ์ 575
ราช@@ 575
มาตรฐาน 574
ไว 574
ตอบ@@ 573
ผู้นำ 573
อดทน 573
ทัพ 572
ภาค 572
สุดสัปดาห์ 572
หลักฐาน 572
เกีย@@ 572
เคล@@ 572
คณะ 571
ประสงค์ 571
หมวก 571
เก้าอี้ 571
ๆ@@ 571
่ำ@@ 569
วน@@ 567
หายใจ 567
เพลิง 567
พอดี 566
ีย 566
หาร 565
ในระหว่าง 565
* 564
พรรค 564
มองหา 564
เนี@@ 564
คนงาน 563
ชน@@ 563
ซ่า 563
หลง@@ 563
ตรงนั้น 562
เลี้ยว 562
กำแพง 561
ท้องถิ่น 560
แผ@@ 559
ทราย 558
สิ่งของ 557
สน@@ 556
หั@@ 556
อ้าง 556
กัด 555
ฝนตก 555
ครั้งนี้ 554
จิต 554
ตกแต่ง 554
บ้า 554
รู 554
เชือก 554
ก่อนที่ 552
ที@@ 552
เต้นรำ 552
เพียงพอ 552
รก 551
มตัว 550
เมนู 550
แลกเปลี่ยน 550
ยุ่งยาก 549
ผู้อื่น 548
มอบ 548
หมู่ 548
ุ่น 548
มิตร 547
สนุกสนาน 547
ทุก@@ 546
ออ@@ 546
บริหาร 545
ผ้า@@ 544
ไว@@ 544
็ก@@ 544
บิล 543
ประหยัด 543
วก@@ 543
ซี@@ 542
รัฐ@@ 542
ล่วงหน้า 542
g@@ 540
คัดค้าน 540
อัตโนมัติ 540
ชัน 539
ดัน 539
ทุกข์ 539
มองเห็น 539
หวาน 539
หัก 539
แผ่น@@ 539
่ำ 539
P@@ 538
ทรัพย์ 537
วด@@ 537
หมายความว่า 537
าง@@ 537
มีด 536
หุ้น 536
เป้าหมาย 536
ในขณะ 536
สุด@@ 535
เทียม 535
เรียง 535
เปอร์เซ็นต์ 534
โอเค 534
ประชา@@ 532
พับ 532
พิสูจน์ 532
มีเหตุผล 532
หลวง 532
หลีกเลี่ยง 532
ห้องน้ำ 532
คุก 531
นิวยอร์ก 531
เกร@@ 531
ส่ง@@ 530
ดิฉัน 529
เท่ากับ 529
ขึ้น@@ 528
ตะวันตก 528
ไปมา 528
ครัว 527
พระเจ้า 526
เครดิต 526
ทดลอง 525
ควัน 524
รถ@@ 524
โต้ 524
ไพ่ 524
ค่อยๆ 523
ชั้น@@ 523
ไซ@@ 523
โค 522
H 521
ยิ่งใหญ่ 521
จฉ@@ 520
ทรง 520
พระราช@@ 520
พิพากษา 520
อม@@ 520
เยอะ 520
แก 520
ข้างใน 519
ซุป 519
ปฏิบัติการ 519
รถเมล์ 519
สมบัติ 519
อล@@ 519
าว@@ 519
เร่ง 519
th 518
ก้าวหน้า 518
ถึงที่ 518
ปรับปรุง 518
ปู 518
พฤ@@ 518
ลิน 518
คาดหวัง 517
โน@@ 517
ซึ้ง 516
พิธี 516
ยศ 516
แปลก@@ 516
กล 515
เซอร์ 515
โม 515
ในใจ 515
ชั@@ 514
ประธาน 514
ียง@@ 514
ทั้งหลาย 513
พยา@@ 513
สติ 513
แต่ง 513
สีแดง 512
ทำความ 511
น่ารัก 511
แลก 511
กาศ 510
ทธ@@ 510
จังหวะ 509
สต@@ 509
เพ 509
ทรมาน 508
ยึด 508
กด 507
ประพฤติ 507
สด@@ 507
ีบ 507
เจ้านาย 507
ซึ@@ 506
แจ 506
โบ@@ 506
ใต้ดิน 506
ขับ@@ 505
นัก@@ 505
กัน. 504
สนิท 503
หมด@@ 503
ักษ@@ 502
F 501
จักรยาน 501
ดาย 501
เหรอ 501
ขอบเขต 500
ชุ@@ 500
บรรทุก 500
พุ@@ 500
็บ 500
ก้าว 499
งาม 499
ฉลอง 499
ือก 499
เงินเดือน 499
สาเหตุ 498
อยู่@@ 498
นำ@@ 497
ยิ่ง@@ 497
ร่วมกัน 497
ฤ@@ 497
วิทยาลัย 497
หง@@ 497
ด์ 496
เชื้อ 496
ผัก 495
ล่าสุด 495
ล้ม 495
การมี 494
เหมือนกับ 494
ซี่ 493
ือน 493
ุ่ม 493
ขึ้นอยู่กับ 492
แมรี่ 492
แห@@ 492
จักร 491
เต้น 491
f 490
ดูด 490
พอที่ 490
วาย 490
ูด 490
ทอน 489
บรรจุ 489
นิ 488
ผิดปกติ 488
ปาร์ตี้ 487
มืด 487
มุ@@ 487
เกียรติ 487
โทร@@ 487
ยื่น 486
รถประจำทาง 486
ระเบียบ 486
เปรียบ 486
ลุ@@ 485
สิบสอง 485
แดน 485
คุ@@ 484
ละลาย 484
หอม 484
แมว 484
รูป@@ 483
ลาก 483
ี้ยว 483
โด 483
ทอม 482
บังเอิญ 482
เคร@@ 481
เลวร้าย 481
ฯ 480
เล็ก@@ 480
เหน@@ 480
กระแส 479
บาร์ 479
วก 479
สรุป 479
ึ 479
เชื่อ@@ 479
กระทบ 478
ร้องไห้ 478
สิ้นสุด 477
เคารพ 477
เหลือง 477
ซุ@@ 476
ทีวี 476
พลังงาน 476
เสม@@ 476
an 475
ศัก@@ 475
เรียกว่า 475
กาย 474
นักท่องเที่ยว 474
รุ่น 474
ศา@@ 474
หมดแล้ว 474
าย 474
ื่อ@@ 474
เงื่อนไข 474
เที่ยง 474
ขอบ 473
ถั@@ 473
ธรรมเนียม 473
พว@@ 473
อิสระ 473
ขยะ 472
ขัดแย้ง 472
ฝัง 472
ร้อย@@ 472
ข้าว@@ 471
ประจำ@@ 471
ภาษ@@ 471
ล้อ@@ 471
ียว 471
เบา 471
พลัง 470
ึง@@ 470
ทอ 469
ียร์ 469
ไข้ 469
่าน@@ 469
จารย์ 468
ิต 468
N 467
ขว@@ 467
คติ 467
ฝูงชน 467
เดา 467
หยวน 466
ไฟ@@ 466
ตัวแทน 465
มากๆ 465
ี้ย@@ 465
เด็กชาย 464
้าย 464
ธ์ 463
เรื่องราว 463
ไม่เป็นไร 463
กระตือรือร้น 462
ถ่าย@@ 461
สรร@@ 461
คณะกรรมการ 460
็ด@@ 460
N@@ 459
ตาย@@ 459
ถอด 459
ยู 459
เดอ 459
คล้าย 458
ซ์ 458
ประธานาธิบดี 458
ไมล์ 458
กฎ@@ 457
พยาน 457
ย่อย 457
แหละ 457
ทาย 456
พัน@@ 456
าะ 456
เด่น 456
เพิ่มเติม 456
กระจาย 455
เชื่อถือ 455
แนว@@ 455
I@@ 454
ชี้ 454
เครือข่าย 454
เคลื่อนไหว 454
เหม@@ 454
โพ@@ 454
ทัศ@@ 453
ล้ม@@ 453
สุภาพ@@ 453
ชาย@@ 452
ทิ@@ 452
ทีหลัง 452
เครียด 452
ใคร@@ 452
ขอ@@ 451
นาม 451
กาล 450
ยาง 450
วย@@ 450
ศ 450
หนู 450
ุน@@ 450
เสียชีวิต 450
เอียง 450
แวะ 450
คง@@ 449
ชิน 449
ตรา@@ 449
นอก@@ 449
กรีน 448
กะ 448
ชาว@@ 448
สะด@@ 448
สา 448
เทศ 448
จนกว่า 447
เจตนา 447
เมล 447
คำแนะ 446
ชัยชนะ 446
ชั่ว 446
ทิวทัศน์ 446
กระโปรง 445
ขี้@@ 445
บอ 445
พริ@@ 445
สำรอง 445
่ะ 445
บา 444
อีก@@ 444
เชย 444
เบอร์@@ 444
โบราณ 444
ดิ 443
บู@@ 443
ทันทีที่ 442
สมิธ 442
ชด@@ 441
ชีพ 441
ผิดหวัง 441
อย่างน้อย 441
ีก 441
ซ้ำ 440
ียด 440
ข้า@@ 439
ปะ@@ 439
บัด 438
ยุค 438
ลัง@@ 438
b@@ 437
ขนส่ง 437
ตั@@ 437
ต่างกัน 437
ว์ 437
สมุด 437
ก่อสร้าง 436
ปลุก 436
พิษ 436
เห็น@@ 436
เฮ@@ 436
ก๊@@ 435
ประทับใจ 435
ี่ย 435
แบบฟอร์ม 435
ขีด 434
ผู้โดยสาร 434
ริม 434
สัมภาระ 434
อี@@ 434
เปร@@ 434
ใหญ่@@ 434
สว่าง 433
หิว 433
ีน 433
เติบโต 433
จร 432
ทารก 432
บาง@@ 432
ปริยาย 432
รอด 432
กำลังกาย 431
ก่อ 431
ขี้ 430
บรรดา 430
แต่งตัว 430
แต้ม 430
้ว 430
ว่า@@ 429
อภิปราย 429
กางเกง 428
จา@@ 428
นึก 428
ย์@@ 428
ริม@@ 428
เกลียด 428
เอก 428
ใจดี 428
ตำหนิ 427
มาหา 427
คริ@@ 426
ติดตาม 425
ผูก 425
วาด 425
ศพ 425
สวรรค์ 425
เหลือเกิน 425
R@@ 424
กิโล@@ 424
ต่อเนื่อง 424
ประเทศจีน 424
ปรับ@@ 424
าบ 424
X 423
ฉาก 423
ชัก@@ 423
เอก@@ 423
ปรับแต่ง 422
สิบเอ็ด 422
ก่อน@@ 421
ก่อให้เกิด 421
สนทนา 421
สวน@@ 421
เรื่อยๆ 421
แท้จริง 421
นีย@@ 420
ไท@@ 420
ทำตา 419
ยากลำบาก 419
อุปสรรค 419
เกือบจะ 419
แง่ 419
โกหก 419
โชค 419
ไต@@ 419
al 418
ทรัพย์สิน 418
สู้ 418
อบอุ่น 418
เกษ@@ 418
ชั่วคราว 417
ซื่อสัตย์ 417
ทุ่ม 417
ปัญญา 417
ว่าที่ 417
ตะวันออก 416
เสียแล้ว 416
กรุง@@ 415
กี@@ 415
สห@@ 415
สั่น 415
้าน 415
รวบรวม 414
สะสม 414
หลังจากที่ 414
เชิง 414
เสื้อ@@ 414
พร้อมกับ 413
สมอง 413
สิง@@ 413
ียด@@ 413
เก็บ@@ 413
เอาชนะ 413
แกะ 413
แค้น 413
แปลก 413
ชรา 412
แม้@@ 412
ค้าง 411
ทั้งวัน 411
สิ@@ 411
สเป@@ 410
เทศ@@ 410
ชั่น 409
สัน@@ 409
เก่า@@ 409
เครื่องยนต์ 409
เศษ 409
เส้น@@ 409
_@@ 408
จด 408
ปรุง 408
ฝุ่น 408
ระยะเวลา 408
แทบจะ 408
ถ 407
นอกจาก 407
ล์ 407
วัตถุ 407
ได้แล้ว 407
ประท้วง 406
ยกเว้น 406
อดีต 406
แค 406
ยม 405
นาม@@ 404
ปลายทาง 404
ฮอล@@ 404
เวที 404
ถือว่า 403
พื้น@@ 403
รายชื่อ 403
ลอก 403
อาวุธ 403
เซีย 403
เสียที 403
การรักษา 402
คาด@@ 402
ฆา@@ 402
ชวน 402
ชื่นชม 402
บ่อยๆ 402
ล้อ 402
แปลง 402
รักษ@@ 401
เอาไว้ 401
ญาณ 400
ติดตั้ง 400
ฟอร์@@ 400
นักศึกษา 399
น้ำตา 399
สระ 399
at 398
ทางเดิน 398
ประเทศไทย 398
แล้วก็ 398
ข้าง@@ 397
ครับ 397
ยิ@@ 397
วันศุกร์ 397
สีดำ 397
สู@@ 397
ไม่พอใจ 397
ชำนาญ 396
รูปร่าง 396
อาชญากรรม 396
ียบ@@ 396
เช็@@ 396
กำจัด 395
ช็อ@@ 395
ื่น@@ 395
คุ้นเคย 394
ทำเป็น 394
ประกอบด้วย 394
มองดู 394
ย่อ 394
อิทธิพล 394
โคล@@ 394
กระด@@ 393
กล้าหาญ 393
ิล 393
เกลือ 393
เหตุ@@ 393
ฏ@@ 392
วี 392
ฮิ 392
ือน@@ 392
แปล 392
กระจก 391
จม 391
ฟ้อง 391
มร@@ 391
รู้@@ 391
เพียงแค่ 391
กำเนิด 390
กุ 390
ท่อ 390
ส้ม 390
ถอน 389
ทธิ 389
ผูก@@ 389
หยิบ 389
ึก 389
แฟน 389
ไหล่ 389
ชิง 388
พูดคุย 388
สำรวจ 388
โพ 388
กรอบ 387
นับ@@ 387
ประสิทธิภาพ 387
รม@@ 387
รับคำ 387
โทรม 387
กระจ@@ 386
กระดูก 386
๊ก@@ 386
กลับ@@ 385
พาร์ 385
ราบ 385
สุก 385
พิพิธภัณฑ์ 384
ภาค@@ 384
ยากจน 384
็ม 384
ผ่อน@@ 383
ร่ม 383
สำเนา 383
หัด 383
เคน 383
โต้แย้ง 383
' 382
กล่าวหา 382
พฤติกรรม 382
มันฝรั่ง 382
ลู 382
คลาย 381
คัด@@ 381
ดำเนิน@@ 381
ถุง 381
หมู่บ้าน 381
ื่อย 381
โกง 381
กิริยา 380
คนไข้ 380
เจรจา 380
เวียน 380
้ม@@ 380
en 379
กลม 379
บัน@@ 379
ลาออก 379
เรีย@@ 379
เลข@@ 379
ท้องฟ้า 378
ใกล้ๆ 378
การเงิน 377
ครีม 377
คุณแม่ 377
ฉะนั้น 377
ดึงดูด 377
นาง@@ 377
ประเพณี 377
ประเมิน 377
พาย 377
สีขาว 377
ื้อ 377
เดีย 377
้าว 377
ผนัง 376
วัน@@ 376
วิเศษ 376
วุ่นวาย 376
ฯลฯ 376
โฮ 376
ต้อง@@ 375
นึก@@ 375
ร้ายแรง 375
วันเสาร์ 375
ออ 375
f@@ 374
ชะ@@ 374
ตะโกน 374
บริสุทธิ์ 374
เมือง@@ 374
เสื้อเชิ้ต 374
มั่นคง 373
มาร์@@ 373
สิ่งแวดล้อม 373
หลากหลาย 373
เงา 373
เปิด@@ 373
แต่ง@@ 373
ขั้นตอน 372
นวนิยาย 372
พล 372
องศา 372
ชนะเลิศ 371
ภูมิใจ 371
สล@@ 371
เป็นผล 371
กด@@ 370
สะกด 370
สะอาด 370
ได้ผล 370
้าน@@ 370
E@@ 369
กันที่ 369
ฟุต 369
U@@ 368
คริสต์มาส 368
บัง 367
แซม 367
โอน 367
คร 366
ประหลาด 366
โล 366
็อค 366
ำ@@ 365
เปียก 365
เลียน 365
ไม่เห็นด้วย 365
ข 364
ช่อง@@ 364
ถู 364
บทความ 364
ประการ 364
เข้มงวด 364
แทนที่ 364
ก์ 363
น. 363
บรรทัด 363
รัฐมนตรี 363
รู้เรื่อง 363
ลงทะเบียน 363
ลัง 363
ัย 363
โท 363
โบสถ์ 363
๊ก 363
or 362
ปักกิ่ง 362
รำคาญ 362
สกี 362
สถา@@ 362
สุภาพ 362
เบส 362
เสื่อ@@ 362
กิจการ 361
หยาบคาย 361
ื่น 361
เผา 361
ฉ 360
โต้เถียง 360
ด้วย. 359
นี่@@ 359
ซา@@ 358
ร้านค้า 358
สหรัฐ 358
อุ่น 358
โอลิมปิก 358
ไร@@ 358
จมูก 357
หัวข้อ 357
เท่า@@ 357
กิจกรรม 356
ก็ยัง 356
ขอร้อง 356
คุณอา 356
เชื้อ@@ 356
เย็บ 356
เลว 356
ต่อความ 355
ที่ตั้ง 355
ปิด@@ 355
รวมกัน 355
ิด@@ 355
ของหวาน 354
ซ้อน 354
ทางซ้าย 354
ที่ไป 354
สก@@ 354
หมา@@ 354
หลบ@@ 354
กระดาน 353
ดะ 353
ด้วย@@ 353
ฟรี 353
รอคอย 353
รูปภาพ 353
องค์กร 353
ดัง@@ 352
น้อย@@ 352
สืบ@@ 352
เพื่อนบ้าน 352
เมน 352
นิว@@ 351
พ่อ@@ 351
ย่า 351
รด 351
ษ 351
สถิติ 351
สัมผัส 351
หลอก 351
เคมี 351
เสา 351
โค้ง 351
ชม@@ 350
ุน 350
คาด 349
คำนวณ 349
ศูนย์กลาง 349
สาขา 349
ส่งออก 349
อยู่แล้ว 349
เยือน 349
กรา@@ 348
ที่รัก 348
ประชากร 348
ชาการ 347
บางส่วน 347
มุ่งหมาย 347
เยา@@ 347
่าว@@ 347
กรุก 346
ค้น 346
ทรั@@ 346
ประมวล 346
ระยะทาง 346
บ่น 345
วรรษ 345
แหลม 345
โน้@@ 345
กู้ 344
ข้อเท็จจริง 344
ซู@@ 344
ถอน@@ 344
ปิ้ง 344
สลับ 344
สับสน 344
หมึก 344
แคบ 344
โมโห 344
คาดว่า 343
รอบคอบ 343
เซนต์ 343
เปลี่ยนไป 343
งิน 342
ทอง@@ 342
ยั@@ 342
เทียบ 342
เสน่ห์ 342
แขวน 342
กันและกัน 341
ข้าศึก 341
ปากกา 341
ม้วน 341
หมา 341
ึ้ง 341
เฝ้า 341
เหง@@ 341
เหลือ@@ 341
เอ่อ 341
ธง 340
ปกคลุม 340
พรร@@ 340
ยง 340
วม 340
เทศกาล 340
เป็นไง 340
เพช@@ 340
เล่น@@ 340
ไฮ@@ 340
ยน 339
สกปรก 339
จิม 338
ท่วม 338
ปริ@@ 338
ปา@@ 338
ผลประโยชน์ 338
สุข@@ 338
ห้อง@@ 338
แข็ง@@ 338
v@@ 337
กั้น 337
ขาด@@ 337
ถอย 337
ล่าช้า 337
าม@@ 337
,000 336
กษ@@ 336
ก่อนที่จะ 336
ขออภัย 336
งาน@@ 336
ชื่นชอบ 336
บิ 336
รสชาติ 336
วัฒนธรรม 336
สวิ@@ 336
หลังคา 336
ก็มี 335
จริต 335
ปรึกษา 335
ยอม@@ 335
อัก@@ 335
โลหะ 335
T@@ 334
คิดเห็น 334
ง่ายๆ 334
มุ่ง@@ 334
ยะ 334
วัตถุ@@ 334
เกอร์ 334
ลุก@@ 333
สถาน@@ 333
สิ่ง@@ 333
ส่อง 333
หน้าตา 333
หลุด 333
ันธ์ 333
เงียบ@@ 333
จริงจัง 332
ดึก 332
สัญลักษณ์ 332
เฉล@@ 332
เดียวกับ 332
คะแนนเสียง 331
ดุ 331
ต้ม 331
ทักษะ 331
สื่อ 331
หรือ@@ 331
ออกเสียง 331
เกณฑ์ 331
่วง@@ 331
ค้าที่ 330
นักกีฬา 330
บำ@@ 330
ประสาท 330
ฟู 330
แสน 330
L@@ 329
กั@@ 329
ระลึก 329
หลอกลวง 329
หลายๆ 329
ออกเ 329
เช 329
V 328
กรณ์ 328
งั้น 328
ถาด 328
รู@@ 328
ร่วง 328
อัตรา@@ 328
อันดับ 328
ื 328
สะพาน 327
สิ้นเชิง 327
อวัยวะ 327
ูก@@ 327
เดี๋ยว 327
เพื่อน@@ 327
ได้เห็น 327
็ง 327
พุ่ง 326
ลล์ 326
สัม@@ 326
เก้าสิบ 326
เด็ด@@ 326
เปียโน 326
คลา@@ 325
ชัก 325
นก@@ 325
เบื้อง@@ 325
โหลด 325
กล่าว@@ 324
การ์ด 324
บิด@@ 324
รั้ว 324
รีบ@@ 324
ว่าง@@ 324
ห้องสมุด 324
เที่ยง@@ 324
ดั@@ 323
สอด@@ 323
ารา 323
เข้ 323
เข้ม@@ 323
เปื้อน 323
เริง 323
แบบ@@ 323
ภาระ 322
ร้อ@@ 322
งดงาม 321
ชนบท 321
ซาก 321
นิก 321
น้อยกว่า 321
มารยาท 321
มิส 321
ลือ 321
เป่า 321
ดิบ 320
ต่างชาติ 320
ทุกสิ่ง 320
ประกันภัย 320
มุ่ง 320
ยั้ง 320
ิม 320
เช็ก 320
จอดรถ 319
ญา 319
ธุ@@ 319
นึง 319
น่ากลัว 319
ราชการ 319
ว่าความ 319
สนอง 319
ห้าง 319
ั่ง 319
ูล 319
คว้า 318
ซีดี 318
ตอบแทน 318
ธนบัตร 318
นัย 318
สติก 318
หมู 318
หลักการ 318
แกร@@ 318
แรงงาน 318
แอล@@ 318
้นส่วน 318
ธา@@ 317
นด@@ 317
สนิ@@ 317
สเต็ก 317
ห่วง 317
ื่@@ 317
แก้@@ 317
ใหม่ๆ 317
งบ 316
ฉาย 316
ณ์@@ 316
ประทานโทษ 316
ปลา@@ 316
มัธยม 316
สิ้น@@ 316
ิร์@@ 316
เป็นทางการ 316
โศ@@ 316
่าง 316
ยืด 315
ลุก 315
เกมส์ 315
เอส 315
โจน 315
ขัง 314
ครั้ง@@ 314
คาร์ 314
ค้นพบ 314
ฉุกเฉิน 314
ทะเลสาบ 314
สั้นๆ 314
เมฆ 314
ไก@@ 314
้อน@@ 314
กระบวนการ 313
จำหน่าย 313
ถัง 313
บุตร 313
ปิ@@ 313
พจนานุกรม 313
มัด 313
แมน 313
ใส่ใจ 313
ทุกสิ่งทุกอย่าง 312
ฟิล์ม 312
มวย 312
ูน 312
เต็ม@@ 312
เรียบ 312
แข@@ 312
จัดหา 311
วัยรุ่น 311
เง@@ 311
โซ 311
ตำ@@ 310
ทฤษฎี 310
ประดับ 310
ปีน 310
สงสาร 310
สบ@@ 310
อรุ@@ 310
เกา@@ 310
เสียง@@ 310
แอปเปิ้ล 310
ไท 310
ชื้น 309
วิศว@@ 309
สวัสดิ์ 309
อาร์ 309
เข็ม@@ 309
เด็กหญิง 309
เนย 309
่อม 309
ปา 308
ผู้เชี่ยวชาญ 308
พื้นดิน 308
ทะ 307
ทุกข์@@ 307
ออสเตรเลีย 307
อ้าง@@ 307
ื่อง@@ 307
เต็มใจ 307
เท่ากัน 307
แป้ง 307
D@@ 306
กระ 306
กล้า@@ 306
คุณค่า 306
จน@@ 306
ดอก@@ 306
ทะเลาะ 306
ที่จริง 306
บรรลุ 306
บัญญัติ 306
เถียง 306
\ 305
กลั@@ 305
ซอส 305
ผืน 305
ภ 305
มัน@@ 305
รงค์ 305
ระงับ 305
ราง 305
วะ 305
อ่าง 305
กิน@@ 304
จด@@ 304
นน 304
นับถือ 304
ฝีมือ 304
ฝ่าย@@ 304
มุมมอง 304
ยาวนาน 304
สะท@@ 304
สาธารณ@@ 304
สาระ 304
แฮ@@ 304
ใบรับรอง 304
กรัม 303
จากนี้ 303
ดำรง 303
นิตยสาร 303
ยู@@ 303
สักหน่อย 303
หยุดพัก 303
อาณา@@ 303
เผชิญ 303
ณฑ@@ 302
ลอ 302
ล็อก 302
สมาคม 302
สลัก 302
เข้ากัน 302
นี้@@ 301
ผิว@@ 301
ยืด@@ 301
ศิลป@@ 301
ียบ 301
เน้น 301
แก่@@ 301
แทง 301
โรง@@ 301
w@@ 300
กรอง 300
กษัตริย์ 300
ตะ 300
ถ้อยคำ 300
สุนทรพจน์ 300
อับ@@ 300
แพร่ 300
ประวั@@ 299
ผลิ 299
มอน 299
มีอายุ 299
ร่ำรวย 299
เจริญ@@ 299
ชายหาด 298
เศร้า@@ 298
เสร็จ@@ 298
ไส้ 298
ทันหัน 297
ทีละ 297
ร่วมมือ 297
ลาด 297
ลาด@@ 297
สโมสร 297
หมอก 297
แอน 297
ดก 296
ผลงาน 296
มูล 296
อริ@@ 296
เช็ด 296
แสตมป์ 296
ไม่พอ 296
กำลังใจ 295
งใจ 295
จำเลย 295
บรรเทา 295
ประ 295
ปราก@@ 295
ระเบ@@ 295
สกุล 295
สูง@@ 295
อิตา@@ 295
ุง 295
เยอรมัน 295
เย็น@@ 295
แนวโน้ม 295
ไพ@@ 295
ไม่ถึง 295
กรุงเทพ@@ 294
ขนม 294
จำได้ 294
นิ่ง 294
พั@@ 294
วินาที 294
เชื่อม 294
เบี้ย 294
ตเตอรี่ 293
ทำหน้าที่ 293
บด 293
พย@@ 293
สถาน 293
หิ@@ 293
กรร@@ 292
ขู่ 292
ถี@@ 292
รับใช้ 292
อร์ด 292
โยง 292
U 291
ดวง 291
พูด@@ 291
เคราะห์ 291
็อก@@ 291
่อย 291
ดำ@@ 290
ฝี@@ 290
วิทยา 290
เข่า 290
เทคโนโลยี 290
โชคร้าย 290
ชะตา 289
ทูต 289
นั้น@@ 289
มีเสียง 289
ศาส@@ 289
ให้อ@@ 289
ไว้ใจ 289
ซอง 288
ป็น 288
เปรียบเทียบ 288
เสือ 288
่อย@@ 288
B@@ 287
กดดัน 287
ทุ่ง 287
ผ่าตัด 287
ยับ@@ 287
ศัพท์ 287
ั่ง@@ 287
คลิก 286
จินตนาการ 286
ต่อหน้า 286
รัง@@ 286
หรูหรา 286
ื้น 286
เข็ม 286
เอาใจใส่ 286
จาร@@ 285
จิต@@ 285
ณี 285
ถือ@@ 285
พ่ายแพ้ 285
วรรณ@@ 285
องค์@@ 285
้ำ@@ 285
ขุด 284
ร้องขอ 284
ลาก่อน 284
วาด@@ 284
ศีลธรรม 284
สบายใจ 284
เดือ@@ 284
เทป 284
โครงสร้าง 284
ฉับ@@ 283
ดี้ 283
ยึด@@ 283
ระบาย 283
ลื่น 283
ลุ 283
เทา 283
เป้า 283
ได้แต่ 283
ขบ@@ 282
นักโทษ 282
รอย@@ 282
เลิศ 282
แทรก 282
โบ 282
ขอบใจ 281
ปกป้อง 281
ล็ด 281
วาร@@ 281
สมรส 281
หนุ่ม@@ 281
อย่างเดียว 281
เพื่อนๆ 281
แกน 281
กว้างขวาง 280
จักร@@ 280
ซ่อม@@ 280
ถ้าไม่ 280
บกพร่อง 280
ระหว่าง@@ 280
ใกล้ชิด 280
DE 279
กอ@@ 279
ตัด@@ 279
ประโย@@ 279
ปริญญา 279
มอบ@@ 279
รัก@@ 279
ศจรรย์ 279
อุดม@@ 279
าด@@ 279
เตะ 279
นักการ 278
มูลค่า 278
ยน@@ 278
อวยพร 278
แก๊@@ 278
โดยเฉพาะ 278
ll 277
คอลัมน์ 277
ทั่วโลก 277
ยุ่ง@@ 277
เหลี่ยม 277
เห็นใจ 277
เอเชีย 277
นุ@@ 276
อิง 276
อุป@@ 276
แหวน 276
กส์ 275
คนเรา 275
สันติภาพ 275
หาร@@ 275
โท@@ 275
กอง@@ 274
ความทรงจำ 274
ชาน@@ 274
ดีเยี่ยม 274
ตรี 274
ทำร้าย 274
ปลอม 274
วิเคราะห์ 274
สืบ 274
เยอ@@ 274
แปร@@ 274
แร่ 274
โหมด 274
ต่ำ@@ 273
นส์ 273
นิด@@ 273
น้อยๆ 273
บราวน์ 273
ปารีส 273
ม่ 273
รุ่ง@@ 273
หลง 273
ิ้ล 273
เที่ยว@@ 273
แก้ตัว 273
แทบ 273
คอ@@ 272
คู่แข่ง 272
ฎ 272
ท้อง@@ 272
ศุลกากร 272
หนี้@@ 272
ซาน 271
ญาติ 271
ถุง@@ 271
สำนึก 271
เจาะ 271
เวน 271
เสพ@@ 271
เสรี@@ 271
แนะ 271
ไห@@ 271
คล้อง 270
ทิศทาง 270
พระ 270
ร่า 270
ไอศ@@ 270
คุ 269
คุณครู 269
ชื่น 269
เลีย@@ 269
แล้วแต่ 269
วิน 268
ักร@@ 268
ไว้@@ 268
it 267
จะเรียก 267
ตรงข้าม 267
ปล้น 267
ละเม@@ 267
ลึก@@ 267
สไ@@ 267
หลอด 267
เยี่ยมชม 267
เรีย 267
แมลง 267
.ศ. 266
นากะ 266
สรรพ@@ 266
เถิด 266
เน็ต 266
กว่านั้น 265
ซะ 265
ประเทศญี่ปุ่น 265
ปลอด 265
ล้อม 265
ส่งเสียง 265
เทคนิค 265
๋ 265
คณิตศาสตร์ 264
คอนเสิร์ต 264
คุก@@ 264
พัสดุ 264
สละ 264
โภ@@ 264
ค. 263
คี 263
ดูถูก 263
ฟื้น@@ 263
ิ่ม 263
เดินเล่น 263
เบาๆ 263
ฐ 262
ดาบ 262
นายกรัฐมนตรี 262
ภู@@ 262
รับประกัน 262
ลาน 262
วิกฤ@@ 262
สถานะ 262
หู@@ 262
เม็ด 262
แต่งกาย 262
โย@@ 262
ขระ 261
ฟุ@@ 261
มหาสมุ@@ 261
รน 261
วิด 261
อว@@ 261
าว 261
ีด@@ 261
ืน@@ 261
ื่อง 261
เจ็บ@@ 261
เสียเวลา 261
แปลกหน้า 261
คิว 260
ยกย่อง 260
สตางค์ 260
สีฟ้า 260
หลักสูตร 260
อำนวย 260
เพล@@ 260
he 259
ซ้อม 259
ซ้ำ@@ 259
บ่อ 259
ปั้น 259
ป้อน 259
พบ@@ 259
มะเร็ง 259
รณ@@ 259
สม 259
สมัยใหม่ 259
สิน 259
อารมณ์@@ 259
เดือด 259
แคลน 259
โดยปกติ 259
โต้@@ 259
ช้าๆ 258
ทะเล@@ 258
นัดหมาย 258
นั้นที่ 258
นิร@@ 258
ปีก 258
ปไต@@ 258
สื่อสาร 258
เพาะ 258
เร่งด่วน 258
แกล@@ 258
แนบ 258
แผน@@ 258
แฮม 258
v 256
บัง@@ 256
ปราศ@@ 256
ั้น 255
ิล@@ 255
หลัก@@ 253
ยืน@@ 252
แร@@ 252
กรรมการ 251
ฒ@@ 251
ดหมาย 251
งค์ 250
จุ 250
ฐ@@ 250
ต่าง@@ 250
ฝู@@ 250
.. 249
is 249
ิว 249
ฎ@@ 248
เบา@@ 247
เฉพา@@ 246
ทรง@@ 245
อื่น@@ 245
นาการ 244
ปัจ@@ 244
เทีย@@ 244
ค้า@@ 243
ง่าย@@ 243
ีย์ 243
ื่อน 243
ทรัพย์@@ 242
บัน 242
ู้ 242
โกร@@ 242
หยา@@ 241
เปอร์@@ 241
เลี้ย@@ 241
ใกล้@@ 241
รวย 240
ษฐ@@ 239
อาชญา@@ 238
สัต@@ 237
ห์@@ 237
้อย@@ 237
us 235
จำน@@ 235
ประท@@ 235
แถ@@ 235
ตื่น@@ 233
ถุ@@ 233
วล 233
เซ็นต์ 233
บาด@@ 232
เกียร@@ 232
ชีวิ@@ 231
มัติ 231
ยี่@@ 231
สูญ@@ 231
เยี่ยม@@ 230
้วง 230
z 229
สมั@@ 229
เมื่อ@@ 229
จาก@@ 228
รง 228
แตก@@ 228
บาย 227
ีม 227
ให@@ 226
ี่ยม 225
แล 225
ระบ@@ 224
O@@ 223
et 223
กำหน@@ 222
re 221
กรรม@@ 221
H@@ 220
ธิ 220
็อก 220
บัติ 219
เช่น@@ 219
แคล@@ 219
สัญ@@ 218
อำ@@ 218
ิ่น 218
ภั@@ 217
วาน 217
วุ@@ 217
าก@@ 217
ฏ 216
พัก@@ 216
จัย 215
แรง@@ 215
me 214
ณา@@ 214
ก้าว@@ 213
คณะ@@ 213
หยิ@@ 213
ิต@@ 213
G@@ 212
ร้า@@ 212
หญ@@ 212
ืด 212
ข่าย 210
มะ 210
่าว 210
ปก@@ 208
ed 207
พิธ@@ 207
สมา@@ 207
หมาย@@ 207
เขา@@ 207
้ย 207
วัส@@ 206
สมบูร@@ 206
หลัง@@ 206
ืด@@ 206
เรียบ@@ 206
บัญ@@ 205
ี่ยว 205
มาร@@ 204
บาล 203
ยาว@@ 203
ยิน@@ 203
ชำ@@ 202
มป์ 202
คาร 201
ผิด@@ 201
้าม 201
ล่า@@ 200
หยุด@@ 200
ตะวัน@@ 199
ถ้า@@ 199
; 198
ค่อย 198
มาตร@@ 197
เลือ@@ 197
็จ@@ 197
วิทยา@@ 196
เลีย 196
จัง@@ 195
วย 195
สน 195
หัส 195
อัง@@ 195
เภ@@ 195
ทั่ว@@ 194
เกี่ยว@@ 194
อุด@@ 193
เฝ@@ 193
W@@ 192
ตี้ 192
ปาก@@ 192
เกต 192
w 191
กระเป๋@@ 191
รอง@@ 191
เชี่ยวชาญ 191
ญญา 190
ยุ 190
W 189
คะ@@ 189
ทัก@@ 188
ลักษ@@ 188
ญา@@ 187
เกียจ 187
’ 187
ol 185
ประก@@ 185
มนุษ@@ 184
มอง@@ 184
สับ@@ 184
เจริ@@ 184
เซ็น@@ 184
หลี@@ 183
ีต 183
ี่ยง 183
F@@ 182
สิบ@@ 182
ใด@@ 182
ตรวจ@@ 181
ปุ@@ 181
เผชิ@@ 181
-@@ 180
ขั@@ 180
ขวัญ 179
คิด@@ 179
ชิด 179
มส์ 179
เถ@@ 179
‘ 179
ผู้อ@@ 178
สาม@@ 177
เลี่ยง 177
แด@@ 177
็ก 177
am 176
ทะเบียน 176
นิวยอร์@@ 176
ี้ย 176
เพิ@@ 174
เศรษฐ@@ 174
ยาย 173
โกน 173
เตร@@ 172
คอน@@ 171
รู้ส@@ 171
เชื่อม@@ 171
ไส@@ 171
่วน 171
็บ@@ 170
แวดล้อม 169
ซอ@@ 168
ประส@@ 168
เว้น 168
J 167
โต@@ 167
กระต@@ 166
คุม 166
เมน@@ 166
บดี 165
เหลว 165
่อน@@ 165
นด์ 164
จอห์@@ 163
เมล์ 163
กรุ@@ 162
รอบ@@ 162
as 161
วรร@@ 161
หน่าย 161
เร่ง@@ 161
1@@ 160
พื@@ 160
ร้อง@@ 160
ให้@@ 160
สิทธิ@@ 159
ไม 159
กิจ 158
ถิ่น 158
มกัน 158
มวล 158
เคราะ@@ 158
กัง@@ 157
พร 157
ดิ์ 156
วัง 156
อาวุ@@ 156
เปลี่ยน@@ 156
่ๆ 156
ค้าน 155
ชี 155
ษฎ@@ 155
สูตร 155
้ก 154
to 153
ลัย 153
เซน@@ 153
de 152
ทัศน์ 152
เร็ว@@ 152
สะพ@@ 151
เชิ@@ 151
ไข 151
สงคร@@ 150
แท้@@ 150
ลด@@ 149
ภูมิ 148
เดีย@@ 148
เทพ@@ 148
ใส@@ 148
ทันที@@ 147
มาส 147
y@@ 146
ผ 146
ไปรษณ@@ 146
..@@ 145
อนุญา@@ 145
ัม@@ 145
ดอน 144
หาย@@ 143
เด็ก@@ 143
แน่น@@ 143
Y 142
ul 142
ระยะ@@ 142
ร่วม@@ 142
เอ็ด 141
หัวเร@@ 140
เริ่ม@@ 140
กระทั่ง 139
พร้อ@@ 139
ยัง@@ 139
ฤ 139
อธิ@@ 139
มูล@@ 138
สเต@@ 138
{ 137
} 137
ถูก@@ 137
ร่ 137
ใ 137
็ต 137
พิมพ@@ 136
มัด@@ 135
อนด์ 135
ร้าย@@ 134
สื่อ@@ 134
ไหล@@ 134
มนตรี 133
รำ@@ 133
ธรร@@ 132
ธรรม@@ 132
บังค@@ 131
้วย 131
x@@ 130
ืม 128
เบื@@ 128
็อ@@ 128
.@@ 127
นิยาย 127
ละเอ@@ 127
no 126
ิศ 126
ฑ@@ 125
พร้อม@@ 125
สำเร็@@ 125
หรี่ 125
ผ่อน 124
+ 123
คืน@@ 123
คค@@ 122
ธน@@ 122
มาน 122
รวด@@ 121
ศึก 120
โลห@@ 120
การ์@@ 117
volution 115
เคลื่อน@@ 115
่ห์ 114
> 113
ดึง@@ 113
พจน์ 112
] 111
เผย 111
[ 110
= 109
พัฒ@@ 109
ชัด@@ 107
สวัส@@ 107
อเมริ@@ 107
q 105
ุก 104
– 102
าร@@ 100
… 100
กรม 98
ge 94
ริยา 92
Q 91
ve 86
co@@ 82
พน@@ 82
็น@@ 79
0@@ 78
ราว@@ 78
?@@ 77
j 77
ทู@@ 77
ังส@@ 77
กิจ@@ 76
id 75
ศั@@ 75
k@@ 74
ศูนย์@@ 73
5@@ 72
un 72
กว้าง@@ 72
ษะ 72
ฬ 71
ัส 70
co 69
ท่ว@@ 69
ได@@ 68
ภัณฑ์ 66
ยุติ@@ 66
เรื่@@ 66
ญั@@ 65
ตย@@ 65
มาก@@ 65
ยาก@@ 65
ขอบ@@ 64
พันธุ@@ 64
หาด 64
โครง@@ 64
กระบ@@ 63
ตตา@@ 63
ตอน@@ 63
เหร@@ 63
ซื่อ@@ 62
ทด@@ 62
สำหร@@ 62
อุตสาห@@ 62
ad 61
V@@ 60
ปัก@@ 60
สัตย์ 60
แปล@@ 60
ครั@@ 59
พิพา@@ 59
แหล@@ 59
รกิจ 58
เรียน@@ 58
Z 57
ี้@@ 57
เสน@@ 57
ค้น@@ 56
ดน@@ 56
มั่น@@ 56
ฬ@@ 56
๊ะ 56
2@@ 55
qu@@ 55
กำลัง@@ 55
จริ@@ 55
J@@ 54
กิ่ง 54
ตบอล 54
ตร์ 54
นนิ@@ 54
ล่วง@@ 54
สาท 54
กระตุ@@ 53
ฝ 53
เนียม 53
หยัด 52
เสร@@ 52
้นร@@ 52
คณ@@ 51
ประวัติ@@ 51
ฝรั่ง 51
อยาก@@ 51
ิว@@ 51
ีการ 51
ุก@@ 51
เจร@@ 51
ตู 50
เลือก@@ 50
ํ 47
# 46
!@@ 45
/@@ 44
q@@ 40
K@@ 31
ฆ 31
3@@ 29
ฑ 27
Y@@ 25
ฒ 24
< 23
ฯ@@ 23
 22
ฺ 22
ฌ 21
$ 20
ฌ@@ 19
@ 18
~ 18
'@@ 17
Q@@ 16
4@@ 15
j@@ 15
8@@ 14
<@@ 14
ฃ 13
฿ 11
6@@ 10
z@@ 9
ฅ 9
— 9
 8
,@@ 7
๖ 7
๙ 7
• 7
Z@@ 5
^ 4
` 3
 3
 3
๔ 3
๗ 3
*@@ 2
+@@ 2
ฃ@@ 2
ฦ 2
ํ@@ 2
๐ 2
๑@@ 2
๒@@ 2
๓@@ 2
๕ 2
๘ 2
๘@@ 2
&@@ 1
\@@ 1
 1
 1
ๅ@@ 1
๏ 1
๑ 1
๓ 1
๕@@ 1
๗@@ 1
๙@@ 1
๚ 1
๛ 1
€ 1
madeupword0000 0
madeupword0001 0
madeupword0002 0
